{
  "version": "1.0",
  "truncation": null,
  "padding": null,
  "added_tokens": [
    {
      "id": 0,
      "content": "|<pad>|",
      "single_word": false,
      "lstrip": false,
      "rstrip": false,
      "normalized": false,
      "special": true
    },
    {
      "id": 1,
      "content": "|<unknown>|",
      "single_word": false,
      "lstrip": false,
      "rstrip": false,
      "normalized": false,
      "special": true
    },
    {
      "id": 2,
      "content": "|<bos>|",
      "single_word": false,
      "lstrip": false,
      "rstrip": false,
      "normalized": false,
      "special": true
    },
    {
      "id": 3,
      "content": "|<eos>|",
      "single_word": false,
      "lstrip": false,
      "rstrip": false,
      "normalized": false,
      "special": true
    },
    {
      "id": 4,
      "content": "|<sep>|",
      "single_word": false,
      "lstrip": false,
      "rstrip": false,
      "normalized": false,
      "special": true
    },
    {
      "id": 5,
      "content": "|<cls>|",
      "single_word": false,
      "lstrip": false,
      "rstrip": false,
      "normalized": false,
      "special": true
    },
    {
      "id": 6,
      "content": "|<mask>|",
      "single_word": false,
      "lstrip": false,
      "rstrip": false,
      "normalized": false,
      "special": true
    }
  ],
  "normalizer": null,
  "pre_tokenizer": {
    "type": "ByteLevel",
    "add_prefix_space": false,
    "trim_offsets": true,
    "use_regex": true
  },
  "post_processor": {
    "type": "ByteLevel",
    "add_prefix_space": true,
    "trim_offsets": true,
    "use_regex": true
  },
  "decoder": {
    "type": "ByteLevel",
    "add_prefix_space": true,
    "trim_offsets": true,
    "use_regex": true
  },
  "model": {
    "type": "BPE",
    "dropout": null,
    "unk_token": "|<unknown>|",
    "continuing_subword_prefix": null,
    "end_of_word_suffix": null,
    "fuse_unk": false,
    "byte_fallback": false,
    "ignore_merges": false,
    "vocab": {
      "|<pad>|": 0,
      "|<unknown>|": 1,
      "|<bos>|": 2,
      "|<eos>|": 3,
      "|<sep>|": 4,
      "|<cls>|": 5,
      "|<mask>|": 6,
      "!": 7,
      "\"": 8,
      "#": 9,
      "$": 10,
      "%": 11,
      "&": 12,
      "'": 13,
      "(": 14,
      ")": 15,
      "*": 16,
      "+": 17,
      ",": 18,
      "-": 19,
      ".": 20,
      "/": 21,
      "0": 22,
      "1": 23,
      "2": 24,
      "3": 25,
      "4": 26,
      "5": 27,
      "6": 28,
      "7": 29,
      "8": 30,
      "9": 31,
      ":": 32,
      ";": 33,
      "<": 34,
      "=": 35,
      ">": 36,
      "?": 37,
      "@": 38,
      "A": 39,
      "B": 40,
      "C": 41,
      "D": 42,
      "E": 43,
      "F": 44,
      "G": 45,
      "H": 46,
      "I": 47,
      "J": 48,
      "K": 49,
      "L": 50,
      "M": 51,
      "N": 52,
      "O": 53,
      "P": 54,
      "Q": 55,
      "R": 56,
      "S": 57,
      "T": 58,
      "U": 59,
      "V": 60,
      "W": 61,
      "X": 62,
      "Y": 63,
      "Z": 64,
      "[": 65,
      "\\": 66,
      "]": 67,
      "^": 68,
      "_": 69,
      "`": 70,
      "a": 71,
      "b": 72,
      "c": 73,
      "d": 74,
      "e": 75,
      "f": 76,
      "g": 77,
      "h": 78,
      "i": 79,
      "j": 80,
      "k": 81,
      "l": 82,
      "m": 83,
      "n": 84,
      "o": 85,
      "p": 86,
      "q": 87,
      "r": 88,
      "s": 89,
      "t": 90,
      "u": 91,
      "v": 92,
      "w": 93,
      "x": 94,
      "y": 95,
      "z": 96,
      "{": 97,
      "|": 98,
      "}": 99,
      "~": 100,
      "¡": 101,
      "¢": 102,
      "£": 103,
      "¤": 104,
      "¥": 105,
      "¦": 106,
      "§": 107,
      "¨": 108,
      "©": 109,
      "ª": 110,
      "«": 111,
      "¬": 112,
      "®": 113,
      "¯": 114,
      "°": 115,
      "±": 116,
      "²": 117,
      "³": 118,
      "´": 119,
      "µ": 120,
      "¶": 121,
      "·": 122,
      "¸": 123,
      "¹": 124,
      "º": 125,
      "»": 126,
      "¼": 127,
      "½": 128,
      "¾": 129,
      "¿": 130,
      "À": 131,
      "Á": 132,
      "Â": 133,
      "Ã": 134,
      "Ä": 135,
      "Å": 136,
      "Æ": 137,
      "Ç": 138,
      "È": 139,
      "É": 140,
      "Ê": 141,
      "Ë": 142,
      "Ì": 143,
      "Í": 144,
      "Î": 145,
      "Ï": 146,
      "Ð": 147,
      "Ñ": 148,
      "Ò": 149,
      "Ó": 150,
      "Ô": 151,
      "Õ": 152,
      "Ö": 153,
      "×": 154,
      "Ø": 155,
      "Ù": 156,
      "Ú": 157,
      "Û": 158,
      "Ü": 159,
      "Ý": 160,
      "Þ": 161,
      "ß": 162,
      "à": 163,
      "á": 164,
      "â": 165,
      "ã": 166,
      "ä": 167,
      "å": 168,
      "æ": 169,
      "ç": 170,
      "è": 171,
      "é": 172,
      "ê": 173,
      "ë": 174,
      "ì": 175,
      "í": 176,
      "î": 177,
      "ï": 178,
      "ð": 179,
      "ñ": 180,
      "ò": 181,
      "ó": 182,
      "ô": 183,
      "õ": 184,
      "ö": 185,
      "÷": 186,
      "ø": 187,
      "ù": 188,
      "ú": 189,
      "û": 190,
      "ü": 191,
      "ý": 192,
      "þ": 193,
      "ÿ": 194,
      "Ā": 195,
      "ā": 196,
      "Ă": 197,
      "ă": 198,
      "Ą": 199,
      "ą": 200,
      "Ć": 201,
      "ć": 202,
      "Ĉ": 203,
      "ĉ": 204,
      "Ċ": 205,
      "ċ": 206,
      "Č": 207,
      "č": 208,
      "Ď": 209,
      "ď": 210,
      "Đ": 211,
      "đ": 212,
      "Ē": 213,
      "ē": 214,
      "Ĕ": 215,
      "ĕ": 216,
      "Ė": 217,
      "ė": 218,
      "Ę": 219,
      "ę": 220,
      "Ě": 221,
      "ě": 222,
      "Ĝ": 223,
      "ĝ": 224,
      "Ğ": 225,
      "ğ": 226,
      "Ġ": 227,
      "ġ": 228,
      "Ģ": 229,
      "ģ": 230,
      "Ĥ": 231,
      "ĥ": 232,
      "Ħ": 233,
      "ħ": 234,
      "Ĩ": 235,
      "ĩ": 236,
      "Ī": 237,
      "ī": 238,
      "Ĭ": 239,
      "ĭ": 240,
      "Į": 241,
      "į": 242,
      "İ": 243,
      "ı": 244,
      "Ĳ": 245,
      "ĳ": 246,
      "Ĵ": 247,
      "ĵ": 248,
      "Ķ": 249,
      "ķ": 250,
      "ĸ": 251,
      "Ĺ": 252,
      "ĺ": 253,
      "Ļ": 254,
      "ļ": 255,
      "Ľ": 256,
      "ľ": 257,
      "Ŀ": 258,
      "ŀ": 259,
      "Ł": 260,
      "ł": 261,
      "Ń": 262,
      "Ġt": 263,
      "Ġa": 264,
      "he": 265,
      "in": 266,
      "re": 267,
      "Ġthe": 268,
      "Ġo": 269,
      "er": 270,
      "Ġs": 271,
      "at": 272,
      "on": 273,
      "Ġc": 274,
      "en": 275,
      "es": 276,
      "Ġw": 277,
      "is": 278,
      "nd": 279,
      "it": 280,
      "or": 281,
      "Ġp": 282,
      "al": 283,
      "Ġb": 284,
      "Ġf": 285,
      "an": 286,
      "Ġof": 287,
      "ed": 288,
      "ing": 289,
      "Ġin": 290,
      "ar": 291,
      "ou": 292,
      "Ġm": 293,
      "Ġand": 294,
      "Ġto": 295,
      "ic": 296,
      "Ġd": 297,
      "ion": 298,
      "le": 299,
      "ro": 300,
      "as": 301,
      "Ġh": 302,
      "ent": 303,
      "Ġth": 304,
      "ct": 305,
      "il": 306,
      "Ġe": 307,
      "Ġre": 308,
      "om": 309,
      "ve": 310,
      "Ġl": 311,
      "st": 312,
      "Ġn": 313,
      "Ġis": 314,
      "ly": 315,
      "Ġbe": 316,
      "âĢ": 317,
      "Ġg": 318,
      "ol": 319,
      "se": 320,
      "ĠT": 321,
      "et": 322,
      "ation": 323,
      "im": 324,
      "id": 325,
      "ow": 326,
      "ur": 327,
      "ut": 328,
      "ch": 329,
      "ce": 330,
      "ra": 331,
      "ot": 332,
      "ig": 333,
      "Ġu": 334,
      "Ġfor": 335,
      "Ġst": 336,
      "Ġon": 337,
      "ĠA": 338,
      "Ġy": 339,
      "Ġthat": 340,
      "ver": 341,
      "ĠS": 342,
      "ir": 343,
      "ĠC": 344,
      "ul": 345,
      "ĠI": 346,
      "ay": 347,
      "Ġare": 348,
      "am": 349,
      "Ġas": 350,
      "el": 351,
      "ith": 352,
      "Ġpro": 353,
      "ad": 354,
      "her": 355,
      "Ġan": 356,
      "Ġyou": 357,
      "Ġcon": 358,
      "Ġor": 359,
      "Ġwith": 360,
      "if": 361,
      "Ġwh": 362,
      "Ġit": 363,
      "od": 364,
      "ter": 365,
      "Ġal": 366,
      "th": 367,
      "ĠThe": 368,
      "ge": 369,
      "op": 370,
      "ĠM": 371,
      "ment": 372,
      "ist": 373,
      "ers": 374,
      "ies": 375,
      "ate": 376,
      "Ġde": 377,
      "ĠP": 378,
      "ill": 379,
      "Ġhe": 380,
      "Ġ(": 381,
      "ab": 382,
      "ess": 383,
      "Ġ1": 384,
      "Ġex": 385,
      "âĢĻ": 386,
      "ect": 387,
      "um": 388,
      "ore": 389,
      "Ġcom": 390,
      "us": 391,
      "Ġwe": 392,
      "Ġha": 393,
      "ĠB": 394,
      "rom": 395,
      "est": 396,
      "ity": 397,
      "ure": 398,
      "ac": 399,
      "ive": 400,
      "ke": 401,
      "Ġv": 402,
      "Ġcan": 403,
      "ant": 404,
      "ud": 405,
      "nt": 406,
      "Ġby": 407,
      "os": 408,
      "em": 409,
      "qu": 410,
      "ld": 411,
      "ĠW": 412,
      "iv": 413,
      "Ġat": 414,
      "ĠH": 415,
      "Ġsu": 416,
      "ain": 417,
      "igh": 418,
      "Ġch": 419,
      "Ġfrom": 420,
      "and": 421,
      "ĠD": 422,
      "pp": 423,
      "ĠE": 424,
      "Ġr": 425,
      "ci": 426,
      "Ġne": 427,
      "ort": 428,
      "Ġwas": 429,
      "Ġse": 430,
      "res": 431,
      "Ġle": 432,
      "art": 433,
      "un": 434,
      "ĠF": 435,
      "ical": 436,
      "The": 437,
      "ĠR": 438,
      "Ġhave": 439,
      "ĠâĢ": 440,
      "ri": 441,
      "Ġsp": 442,
      "og": 443,
      "Ġen": 444,
      "ĠN": 445,
      "Ġ2": 446,
      "Ġsh": 447,
      "Ġwor": 448,
      "Ġab": 449,
      "rou": 450,
      "ĠG": 451,
      "Ġnot": 452,
      "Ġthis": 453,
      "ĠL": 454,
      "all": 455,
      "ost": 456,
      "ight": 457,
      "out": 458,
      "ome": 459,
      "Ġus": 460,
      "du": 461,
      "pt": 462,
      "our": 463,
      "red": 464,
      "gh": 465,
      "ear": 466,
      "Ġpl": 467,
      "ich": 468,
      "Ġim": 469,
      "ions": 470,
      "ated": 471,
      "ine": 472,
      "per": 473,
      "ide": 474,
      "oc": 475,
      "ag": 476,
      "act": 477,
      "ell": 478,
      "Ġtheir": 479,
      "ast": 480,
      "ther": 481,
      "ard": 482,
      "Ġk": 483,
      "Ġyour": 484,
      "Ġint": 485,
      "age": 486,
      "00": 487,
      "ood": 488,
      "ff": 489,
      "pl": 490,
      "ould": 491,
      "ally": 492,
      "ans": 493,
      "ak": 494,
      "Ġwhe": 495,
      "so": 496,
      "ĠO": 497,
      "ĠU": 498,
      "ous": 499,
      "ru": 500,
      "Ġdis": 501,
      "Ġwhich": 502,
      "Ġthey": 503,
      "Ġinc": 504,
      "ild": 505,
      "ult": 506,
      "vel": 507,
      "cc": 508,
      "iz": 509,
      "Ġhas": 510,
      "Ġmore": 511,
      "Ġso": 512,
      "ater": 513,
      "Ġwill": 514,
      "Ġall": 515,
      "Ġcomp": 516,
      "Ġad": 517,
      "ong": 518,
      "ap": 519,
      "Ġcont": 520,
      "ĠIn": 521,
      "ust": 522,
      "end": 523,
      "ia": 524,
      "ere": 525,
      "ib": 526,
      "Ġres": 527,
      "Ġte": 528,
      "orm": 529,
      "ew": 530,
      "are": 531,
      "ks": 532,
      "ary": 533,
      "ations": 534,
      "âĢĿ": 535,
      "ents": 536,
      "Ġcl": 537,
      "Ġman": 538,
      "Ġdo": 539,
      "ĠTh": 540,
      "ĠJ": 541,
      "ip": 542,
      "ence": 543,
      "able": 544,
      "Ġother": 545,
      "ind": 546,
      "ach": 547,
      "ial": 548,
      "ry": 549,
      "Ġimp": 550,
      "Ġone": 551,
      "Ġstud": 552,
      "ep": 553,
      "Ġbut": 554,
      "oo": 555,
      "ec": 556,
      "'s": 557,
      "reat": 558,
      "ake": 559,
      "Ġper": 560,
      "ass": 561,
      "Ġme": 562,
      "Ġalso": 563,
      "Ġabout": 564,
      "ign": 565,
      "ase": 566,
      "au": 567,
      "ance": 568,
      "ory": 569,
      "very": 570,
      "Ġwere": 571,
      "ĠâĢľ": 572,
      "av": 573,
      "Ġj": 574,
      "Ġar": 575,
      "Ġout": 576,
      "Ġpe": 577,
      "ace": 578,
      "ction": 579,
      "ord": 580,
      "ition": 581,
      "Ġpart": 582,
      "ount": 583,
      "ress": 584,
      "one": 585,
      "Ġtim": 586,
      "now": 587,
      "ber": 588,
      "Ġsy": 589,
      "Ġwho": 590,
      "ric": 591,
      "Ġun": 592,
      "Ġinf": 593,
      "ound": 594,
      "Ġcomm": 595,
      "ish": 596,
      "ĠSt": 597,
      "ack": 598,
      "ame": 599,
      "Ġapp": 600,
      "ens": 601,
      "Ġyear": 602,
      "ang": 603,
      "ĠIt": 604,
      "Ġev": 605,
      "ors": 606,
      "Ġdi": 607,
      "low": 608,
      "ike": 609,
      "olog": 610,
      "ite": 611,
      "ople": 612,
      "ces": 613,
      "ree": 614,
      "ub": 615,
      "ue": 616,
      "ice": 617,
      "ose": 618,
      "Ġthem": 619,
      "iff": 620,
      "Ġthan": 621,
      "Ġbec": 622,
      "Ġpre": 623,
      "Ġup": 624,
      "ren": 625,
      "Ġsome": 626,
      "Ġhow": 627,
      "Ġqu": 628,
      "ile": 629,
      "Ġ19": 630,
      "mer": 631,
      "ays": 632,
      "Ġwhen": 633,
      "Ġpeople": 634,
      "ates": 635,
      "Ġmay": 636,
      "nder": 637,
      "pe": 638,
      "ings": 639,
      "Ġrec": 640,
      "Ġinto": 641,
      "Ġcol": 642,
      "Ġmost": 643,
      "Ġbeen": 644,
      "Ġits": 645,
      "ĠK": 646,
      "Ġknow": 647,
      "Ġdiff": 648,
      "rough": 649,
      "vers": 650,
      "lud": 651,
      "king": 652,
      "alth": 653,
      "Ġtra": 654,
      "ail": 655,
      "Ġour": 656,
      "irst": 657,
      "row": 658,
      "ĠThis": 659,
      "Ġuse": 660,
      "Ġover": 661,
      "ph": 662,
      "ough": 663,
      "Ġchild": 664,
      "rit": 665,
      "ie": 666,
      "Ġtime": 667,
      "Ġbl": 668,
      "ĠCh": 669,
      "ause": 670,
      "Ġhis": 671,
      "ning": 672,
      "Ġra": 673,
      "velop": 674,
      "ms": 675,
      "Ġro": 676,
      "Ġthere": 677,
      "Ġthese": 678,
      "Ġgo": 679,
      "te": 680,
      "ian": 681,
      "ons": 682,
      "ual": 683,
      "Ġnew": 684,
      "Ġag": 685,
      "les": 686,
      "erv": 687,
      "tern": 688,
      "lect": 689,
      "Ġact": 690,
      "Ġlike": 691,
      "Ġ\"": 692,
      "ool": 693,
      "ject": 694,
      "we": 695,
      "Ġ20": 696,
      "Ġbet": 697,
      "Ġunder": 698,
      "ities": 699,
      "ove": 700,
      "ific": 701,
      "ys": 702,
      "Ġhel": 703,
      "Ġcons": 704,
      "ts": 705,
      "ond": 706,
      "stem": 707,
      "Ġinclud": 708,
      "Ġdes": 709,
      "Ġsa": 710,
      "Ġtw": 711,
      "ll": 712,
      "Ġused": 713,
      "Ġacc": 714,
      "ĠV": 715,
      ").": 716,
      "Ġhelp": 717,
      "Ġneed": 718,
      "lic": 719,
      "Ġdevelop": 720,
      "ffect": 721,
      "Ġmany": 722,
      "Ġfirst": 723,
      "Ġ3": 724,
      "ple": 725,
      "ments": 726,
      "ĠY": 727,
      "Ġwhat": 728,
      "ob": 729,
      "Ġsuch": 730,
      "round": 731,
      "Ġph": 732,
      "Ġgen": 733,
      "ational": 734,
      "ire": 735,
      "ating": 736,
      "Ġprodu": 737,
      "ular": 738,
      "hed": 739,
      "cial": 740,
      "cess": 741,
      "ĠUn": 742,
      "Ġthrough": 743,
      "ook": 744,
      "ious": 745,
      "Ġwork": 746,
      "Ġrel": 747,
      "ics": 748,
      "ative": 749,
      "Ġtr": 750,
      "Ġfe": 751,
      "ced": 752,
      "als": 753,
      "Ġdiffere": 754,
      "uring": 755,
      "eth": 756,
      "Ġif": 757,
      "uc": 758,
      "Ġwater": 759,
      "Ġsc": 760,
      "Ġprov": 761,
      "Ġhad": 762,
      "hen": 763,
      "Ġtwo": 764,
      "Ġrep": 765,
      "Ġam": 766,
      "Ġac": 767,
      "Ġany": 768,
      "ten": 769,
      "Ġsystem": 770,
      "ath": 771,
      "Ġonly": 772,
      "In": 773,
      "Ġpo": 774,
      "ov": 775,
      "Ġwould": 776,
      "ature": 777,
      "Ġind": 778,
      "Ġhealth": 779,
      "oth": 780,
      "int": 781,
      "Ġyears": 782,
      "ise": 783,
      "Ġsur": 784,
      "ĠâĢĵ": 785,
      "erm": 786,
      "ble": 787,
      "oss": 788,
      "ng": 789,
      "ne": 790,
      "Ġoff": 791,
      "fter": 792,
      "iss": 793,
      "ark": 794,
      "ange": 795,
      "ful": 796,
      "Ġfl": 797,
      "Ġ-": 798,
      "chool": 799,
      "Ġpr": 800,
      "Ġrese": 801,
      "Ġem": 802,
      "ife": 803,
      "Ġreg": 804,
      "arch": 805,
      "ased": 806,
      "rib": 807,
      "ram": 808,
      "Ġdec": 809,
      "Ġexp": 810,
      "Ġno": 811,
      "Ġsm": 812,
      "old": 813,
      "Ġob": 814,
      "hat": 815,
      "Ġlear": 816,
      "Ġco": 817,
      "ility": 818,
      "Ġadd": 819,
      "ower": 820,
      "ween": 821,
      "ible": 822,
      "Ġwell": 823,
      "chn": 824,
      "),": 825,
      "Ġhigh": 826,
      "ract": 827,
      "Ġatt": 828,
      "own": 829,
      "Ġimport": 830,
      "hes": 831,
      "Ġbu": 832,
      "gan": 833,
      "Ġear": 834,
      "ants": 835,
      "Ġbetween": 836,
      "its": 837,
      "ology": 838,
      "Ġmake": 839,
      "ert": 840,
      "Ġty": 841,
      "meric": 842,
      "fore": 843,
      "Ġinv": 844,
      "ade": 845,
      "Ġworld": 846,
      "Ġget": 847,
      "ists": 848,
      "land": 849,
      "ily": 850,
      "Ġfound": 851,
      "wn": 852,
      "ural": 853,
      "Ġnum": 854,
      "Ġrem": 855,
      "ĠHe": 856,
      "Ġspec": 857,
      "Ġwhere": 858,
      "Ġpres": 859,
      "Ġsub": 860,
      "xt": 861,
      "Ġdifferent": 862,
      "erg": 863,
      "Ġform": 864,
      "Ġchildren": 865,
      "ually": 866,
      "ting": 867,
      "cy": 868,
      "Ġcent": 869,
      "ines": 870,
      "Ġcar": 871,
      "ied": 872,
      "Ġsupp": 873,
      "ited": 874,
      "ick": 875,
      "ever": 876,
      "uch": 877,
      "ins": 878,
      "Ġcould": 879,
      "Ġpers": 880,
      "Ġtrans": 881,
      "Ġ201": 882,
      "Th": 883,
      "Ġlar": 884,
      "Ġshould": 885,
      "ron": 886,
      "ution": 887,
      "Ġexam": 888,
      "ĠAmeric": 889,
      "ident": 890,
      "ink": 891,
      "ĠAs": 892,
      "Ġhum": 893,
      "ef": 894,
      "ict": 895,
      "Ġstudents": 896,
      "Ġ4": 897,
      "Ġsim": 898,
      "sel": 899,
      "Ġexper": 900,
      "Ġcount": 901,
      "ata": 902,
      "Ġlong": 903,
      "ormation": 904,
      "ivers": 905,
      "Ġmod": 906,
      "Ġ5": 907,
      "aw": 908,
      "ness": 909,
      "Ġcall": 910,
      "cer": 911,
      "Ġed": 912,
      "Ġvar": 913,
      "iron": 914,
      "Ġca": 915,
      "Ġinter": 916,
      "aking": 917,
      "Ġdisc": 918,
      "ft": 919,
      "Ġref": 920,
      "ety": 921,
      "Ġinst": 922,
      "Ġway": 923,
      "Ġincre": 924,
      "Ġmed": 925,
      "Ġfood": 926,
      "ody": 927,
      "ically": 928,
      "get": 929,
      "Ġjust": 930,
      "Ġke": 931,
      "Ġsk": 932,
      "ds": 933,
      "Ġtechn": 934,
      "Ġher": 935,
      "Ġvery": 936,
      "Ġevery": 937,
      "ps": 938,
      "Ġstudy": 939,
      "vent": 940,
      "Ġbecause": 941,
      "Ġart": 942,
      "Ġimportant": 943,
      "Ġdet": 944,
      "ives": 945,
      "Ġeven": 946,
      "Ġpol": 947,
      "ures": 948,
      "Ġafter": 949,
      "Ġsci": 950,
      "Ġeffect": 951,
      "Ġprocess": 952,
      "Ġeach": 953,
      "ases": 954,
      "hers": 955,
      "Ġcre": 956,
      "arm": 957,
      "Ġgra": 958,
      "Ġfol": 959,
      "Ġ18": 960,
      "Ġprog": 961,
      "Ġsign": 962,
      "Ġgener": 963,
      "Ġthen": 964,
      "cept": 965,
      "ages": 966,
      "urn": 967,
      "Ġlife": 968,
      "ros": 969,
      "Ġschool": 970,
      "Ġgrow": 971,
      "Ġspe": 972,
      "Ġpub": 973,
      "Ġfam": 974,
      "Ġread": 975,
      "Ġsee": 976,
      "Ġfact": 977,
      "Ġext": 978,
      "ues": 979,
      "Ġdise": 980,
      "ĠPro": 981,
      "ruct": 982,
      "Ġloc": 983,
      "Ġresp": 984,
      "Ġsaid": 985,
      "Ġthose": 986,
      "Ġmon": 987,
      "cent": 988,
      "tle": 989,
      "Ġresult": 990,
      "viron": 991,
      "ĠThey": 992,
      "Ġpat": 993,
      "oy": 994,
      "Ġduring": 995,
      "led": 996,
      "iew": 997,
      "Ġpartic": 998,
      "Ġset": 999,
      "Ġbeing": 1000,
      "Ġhist": 1001,
      "Ġproble": 1002,
      "Ġcommun": 1003,
      "Ġdef": 1004,
      "Ġmuch": 1005,
      "ck": 1006,
      "ism": 1007,
      "Ġ200": 1008,
      "Ġfind": 1009,
      "Ġcur": 1010,
      "con": 1011,
      "Ġinformation": 1012,
      "Ġlead": 1013,
      "Ġche": 1014,
      "Ġdist": 1015,
      "stand": 1016,
      "Ġexpl": 1017,
      "Ġoften": 1018,
      "Ġgl": 1019,
      "ergy": 1020,
      "ĠAl": 1021,
      "other": 1022,
      "Ġpop": 1023,
      "Ġfollow": 1024,
      "Ġsec": 1025,
      "Ġlevel": 1026,
      "ĠWe": 1027,
      "Ġdep": 1028,
      "omm": 1029,
      "ize": 1030,
      "Ġcommon": 1031,
      "orn": 1032,
      "Ġusing": 1033,
      "Ġsmall": 1034,
      "Ġbody": 1035,
      "This": 1036,
      "gg": 1037,
      "Ġdata": 1038,
      "Ġmade": 1039,
      "ices": 1040,
      "Ġperson": 1041,
      "Ġass": 1042,
      "Ġback": 1043,
      "vironment": 1044,
      "any": 1045,
      "ized": 1046,
      "Ġrequ": 1047,
      "Ġdoes": 1048,
      "ection": 1049,
      "Ġshe": 1050,
      "Ġshow": 1051,
      "Ġent": 1052,
      "Ġaround": 1053,
      "imate": 1054,
      "rain": 1055,
      "Ġins": 1056,
      "form": 1057,
      "day": 1058,
      "Ġsol": 1059,
      "ather": 1060,
      "Ġown": 1061,
      "Ġresearch": 1062,
      "omen": 1063,
      "..": 1064,
      "Ġday": 1065,
      "Ġaut": 1066,
      "ale": 1067,
      "ork": 1068,
      "Ġmin": 1069,
      "read": 1070,
      "rect": 1071,
      "akes": 1072,
      "Ġris": 1073,
      "ars": 1074,
      "eg": 1075,
      "io": 1076,
      "Ġless": 1077,
      "Ġmain": 1078,
      "Ġgood": 1079,
      "Ġfun": 1080,
      "ury": 1081,
      "Ġstr": 1082,
      "ĠHow": 1083,
      "Ġcell": 1084,
      "Ġclass": 1085,
      "Ġright": 1086,
      "ward": 1087,
      "Ġdesign": 1088,
      "Ġboth": 1089,
      "Ġtest": 1090,
      "Ġend": 1091,
      "000": 1092,
      "ted": 1093,
      "Ġgrou": 1094,
      "Ġav": 1095,
      "iqu": 1096,
      "ty": 1097,
      "Ġsame": 1098,
      "und": 1099,
      "ince": 1100,
      "Ġocc": 1101,
      "Ġnumber": 1102,
      "Ġ6": 1103,
      "ished": 1104,
      "vern": 1105,
      "Ġcomple": 1106,
      "ality": 1107,
      "Ġprot": 1108,
      "ivid": 1109,
      ".âĢĿ": 1110,
      "Ġknown": 1111,
      "dition": 1112,
      "iversity": 1113,
      "Ġbr": 1114,
      "Ġstart": 1115,
      "hip": 1116,
      "ved": 1117,
      "Ġlit": 1118,
      "Ġbefore": 1119,
      "ĠIf": 1120,
      "iel": 1121,
      "Ġmy": 1122,
      "ides": 1123,
      "Ġactiv": 1124,
      "Ġvis": 1125,
      "Ġelect": 1126,
      "Ġwhile": 1127,
      "Ġcalled": 1128,
      "ral": 1129,
      "Ġhuman": 1130,
      "iving": 1131,
      "ĠAn": 1132,
      "Ġtreat": 1133,
      "Ġthree": 1134,
      "ĠCon": 1135,
      "Ġma": 1136,
      "ient": 1137,
      "rop": 1138,
      "Ġtake": 1139,
      "ix": 1140,
      "nce": 1141,
      "ĠFor": 1142,
      "ĠInd": 1143,
      "the": 1144,
      "ute": 1145,
      "ĠAr": 1146,
      "Ġnow": 1147,
      "rol": 1148,
      "Ġunderstand": 1149,
      "Ġplan": 1150,
      "ex": 1151,
      "ulation": 1152,
      "der": 1153,
      "acter": 1154,
      "ains": 1155,
      "Ġtoo": 1156,
      "Ġorgan": 1157,
      "inal": 1158,
      "ock": 1159,
      "Ġcaus": 1160,
      "Ġdown": 1161,
      "Ġpower": 1162,
      "Ġland": 1163,
      "ital": 1164,
      "Ġeduc": 1165,
      "ined": 1166,
      "ids": 1167,
      "Ġstate": 1168,
      "Ġlearn": 1169,
      "outh": 1170,
      "Ġval": 1171,
      "Ġtyp": 1172,
      "Ġhand": 1173,
      "Ġdisease": 1174,
      "oms": 1175,
      "Ġincluding": 1176,
      "Ġbuild": 1177,
      "Ġser": 1178,
      "air": 1179,
      "aterial": 1180,
      "Ġenergy": 1181,
      "ross": 1182,
      "ĠNew": 1183,
      "rent": 1184,
      "ters": 1185,
      "Ġchar": 1186,
      "Ġlarge": 1187,
      "reen": 1188,
      "Ġmem": 1189,
      "Ġredu": 1190,
      "ier": 1191,
      "up": 1192,
      "Ġreport": 1193,
      "Ġenvironment": 1194,
      "Ġbel": 1195,
      "ead": 1196,
      "ves": 1197,
      "oh": 1198,
      "illion": 1199,
      "ording": 1200,
      "Ġposs": 1201,
      "uss": 1202,
      "Ġmet": 1203,
      "Ġdr": 1204,
      "ving": 1205,
      "Ġeas": 1206,
      "ven": 1207,
      "Ġest": 1208,
      "angu": 1209,
      "Ġgreat": 1210,
      "gen": 1211,
      "âĢľ": 1212,
      "Ġserv": 1213,
      "cl": 1214,
      "ger": 1215,
      "Ġsom": 1216,
      "Ġ10": 1217,
      "iver": 1218,
      "ĠSp": 1219,
      "ouse": 1220,
      "ĠBut": 1221,
      "ull": 1222,
      "ets": 1223,
      "itions": 1224,
      "ĠYou": 1225,
      "Ġcare": 1226,
      "What": 1227,
      "Ġcle": 1228,
      "ave": 1229,
      "ources": 1230,
      "Ġwrit": 1231,
      "ĠEng": 1232,
      "ien": 1233,
      "Ġbeh": 1234,
      "Ġquest": 1235,
      "ered": 1236,
      "||": 1237,
      "Ġexample": 1238,
      "Ġfew": 1239,
      "Ġmaterial": 1240,
      "Ġsym": 1241,
      "Ġallow": 1242,
      "Ġagain": 1243,
      "Ġconf": 1244,
      "âĢĶ": 1245,
      "ash": 1246,
      "ĠThese": 1247,
      "Ġpract": 1248,
      "Ġequ": 1249,
      "ering": 1250,
      "ries": 1251,
      "raph": 1252,
      "Ġlight": 1253,
      "Ġplay": 1254,
      "arc": 1255,
      "Ġsupport": 1256,
      "iod": 1257,
      "Ġconst": 1258,
      "Ġcour": 1259,
      "ared": 1260,
      "ĠThere": 1261,
      "ional": 1262,
      "Ġtem": 1263,
      "Ġproject": 1264,
      "Ġpain": 1265,
      "Ġthough": 1266,
      "Ġblood": 1267,
      "Ġphys": 1268,
      "Ġmus": 1269,
      "Ġair": 1270,
      "ected": 1271,
      "ential": 1272,
      "els": 1273,
      "lish": 1274,
      "ium": 1275,
      "Ġop": 1276,
      "way": 1277,
      "Ġcor": 1278,
      "ills": 1279,
      "Ġve": 1280,
      "Ġ7": 1281,
      "Ġdevelopment": 1282,
      "Ġide": 1283,
      "Ġcontin": 1284,
      "Ġmust": 1285,
      "ĠWh": 1286,
      "ĠUniversity": 1287,
      "Ġchang": 1288,
      "Ġgu": 1289,
      "arent": 1290,
      "eng": 1291,
      "Ġchange": 1292,
      ",âĢĿ": 1293,
      "agn": 1294,
      "Ġbre": 1295,
      "It": 1296,
      "ividual": 1297,
      "rodu": 1298,
      "Ġ8": 1299,
      "Ġarea": 1300,
      "ah": 1301,
      "Ġbo": 1302,
      "Ġplace": 1303,
      "Ġgovern": 1304,
      "Ġeng": 1305,
      "Ġhistory": 1306,
      "Ġmat": 1307,
      "ental": 1308,
      "Ġanim": 1309,
      "osed": 1310,
      "Ġinclude": 1311,
      "Ġpublic": 1312,
      "Ġcause": 1313,
      "ĠIs": 1314,
      "Ġhome": 1315,
      "ax": 1316,
      "Ġrisk": 1317,
      "Ġstand": 1318,
      "Ġpresent": 1319,
      "Ġproduct": 1320,
      "Ġbas": 1321,
      "ĠAmerican": 1322,
      "Ġstill": 1323,
      "Ġlearning": 1324,
      "itive": 1325,
      "Ġadv": 1326,
      "Ġident": 1327,
      "Ġdid": 1328,
      "ethod": 1329,
      "ĠâĢĺ": 1330,
      "ired": 1331,
      "Ġwomen": 1332,
      "Ġiss": 1333,
      "Ġscient": 1334,
      "atural": 1335,
      "Ġlook": 1336,
      "line": 1337,
      "conom": 1338,
      "Ġvari": 1339,
      "de": 1340,
      "Ġappro": 1341,
      "bers": 1342,
      "iven": 1343,
      "soci": 1344,
      "Ġearly": 1345,
      "erest": 1346,
      "ĠSo": 1347,
      "Ġimpro": 1348,
      "Ġpot": 1349,
      "Ġspecies": 1350,
      "orth": 1351,
      "Ġwant": 1352,
      "ination": 1353,
      "Ġold": 1354,
      "bs": 1355,
      "ran": 1356,
      "Ġwithin": 1357,
      "jor": 1358,
      "self": 1359,
      "ason": 1360,
      "Ġpur": 1361,
      "lished": 1362,
      "Ġdon": 1363,
      "ĠAnd": 1364,
      "Ġindividual": 1365,
      "me": 1366,
      "Ġmight": 1367,
      "ource": 1368,
      "ats": 1369,
      "Ġprof": 1370,
      "ffic": 1371,
      "Ġbecome": 1372,
      "Ġprogram": 1373,
      "com": 1374,
      "Ġoccur": 1375,
      "Ġben": 1376,
      "ption": 1377,
      "Ġbeg": 1378,
      "Ġmeas": 1379,
      "ĠUnited": 1380,
      "ertain": 1381,
      "uro": 1382,
      "Ġsl": 1383,
      "pr": 1384,
      "ense": 1385,
      "Ġlangu": 1386,
      "icle": 1387,
      "Ġimm": 1388,
      "'t": 1389,
      "Ġtop": 1390,
      "cing": 1391,
      "oun": 1392,
      "ration": 1393,
      "Ġplant": 1394,
      "Ġaffect": 1395,
      "Ġsit": 1396,
      "Ġtre": 1397,
      "ological": 1398,
      "Ġpass": 1399,
      "ently": 1400,
      "ware": 1401,
      "20": 1402,
      "Ġmeans": 1403,
      "ior": 1404,
      "Ġdesc": 1405,
      "Ġsever": 1406,
      "Ġdirect": 1407,
      "Ġwithout": 1408,
      "Ġret": 1409,
      "ization": 1410,
      "ify": 1411,
      "ĠSe": 1412,
      "Ġcult": 1413,
      "ories": 1414,
      "Ġpercent": 1415,
      "Ġsocial": 1416,
      "ĠRes": 1417,
      "Ġlast": 1418,
      "ĠâĢĶ": 1419,
      "eral": 1420,
      "Ġdem": 1421,
      "ience": 1422,
      "Ġ9": 1423,
      "to": 1424,
      "Ġhy": 1425,
      "Ġfamily": 1426,
      "ield": 1427,
      "ime": 1428,
      "here": 1429,
      "iness": 1430,
      "Ġmil": 1431,
      "Ġcap": 1432,
      "ived": 1433,
      "Ġnear": 1434,
      "use": 1435,
      "Ġmethod": 1436,
      "less": 1437,
      "ograph": 1438,
      "Ġlow": 1439,
      "Ġbelie": 1440,
      "Ġele": 1441,
      "Ġdev": 1442,
      "Ġsaf": 1443,
      "Ġmove": 1444,
      "Ġname": 1445,
      "ards": 1446,
      "Ġmajor": 1447,
      "ability": 1448,
      "ton": 1449,
      "Ġbest": 1450,
      "Ġcurrent": 1451,
      "Ġhim": 1452,
      "ways": 1453,
      "atic": 1454,
      "ĠDe": 1455,
      "Ġbetter": 1456,
      "Ġproper": 1457,
      "Ġage": 1458,
      "Ġinterest": 1459,
      "ner": 1460,
      "Ġanother": 1461,
      "ĠHowever": 1462,
      "Ġanal": 1463,
      "Ġkeep": 1464,
      "Ġprovide": 1465,
      "Ġeconom": 1466,
      "Ġseveral": 1467,
      "Ġbir": 1468,
      "ĠWhen": 1469,
      "Ġhere": 1470,
      "Ġareas": 1471,
      "ians": 1472,
      "ining": 1473,
      "Ġcal": 1474,
      "ern": 1475,
      "Ġpos": 1476,
      "Ġfore": 1477,
      "ified": 1478,
      "Ġcomput": 1479,
      "Ġmean": 1480,
      "ider": 1481,
      "Ġgroup": 1482,
      "ug": 1483,
      "Ġwee": 1484,
      "ĠCol": 1485,
      "ĠStates": 1486,
      "Ġsecond": 1487,
      "Ġorig": 1488,
      "Ġes": 1489,
      "ĠAd": 1490,
      "Ġcontrol": 1491,
      "Ġant": 1492,
      "ĠEx": 1493,
      "ĠPl": 1494,
      ".\"": 1495,
      "cle": 1496,
      "ples": 1497,
      "ocus": 1498,
      "ĠPh": 1499,
      "Ġpar": 1500,
      "ots": 1501,
      "ĠCan": 1502,
      "Ġtype": 1503,
      "Ġindu": 1504,
      "Ġinfl": 1505,
      "ĠAt": 1506,
      "ccess": 1507,
      "hor": 1508,
      "Ġcreat": 1509,
      "19": 1510,
      "Ġcells": 1511,
      "Ġperiod": 1512,
      "Ġinvol": 1513,
      "Ġresearc": 1514,
      "Ġreal": 1515,
      "Ġparticular": 1516,
      "Ġopp": 1517,
      "Ġflow": 1518,
      "az": 1519,
      "Ġleg": 1520,
      "Ġhapp": 1521,
      "Ġ&": 1522,
      "Ġcountry": 1523,
      "Ġmark": 1524,
      "We": 1525,
      "ames": 1526,
      "man": 1527,
      "Ġcancer": 1528,
      "Ġavail": 1529,
      "Ġrest": 1530,
      "Ġyoung": 1531,
      "Ġable": 1532,
      "Ġthings": 1533,
      "ĠTo": 1534,
      "Ġnatural": 1535,
      "Ġorder": 1536,
      "Ġter": 1537,
      "hy": 1538,
      "Ġfour": 1539,
      "aper": 1540,
      "Ġmar": 1541,
      "Ġprevent": 1542,
      "ogn": 1543,
      "Ġfollowing": 1544,
      "Ġbrain": 1545,
      "Ġtimes": 1546,
      "Ġpoint": 1547,
      "ote": 1548,
      "Ġproblems": 1549,
      "ĠCl": 1550,
      "Ġwar": 1551,
      "Ġheart": 1552,
      "Ġperform": 1553,
      "ission": 1554,
      "ina": 1555,
      "Ġsince": 1556,
      "ĠSh": 1557,
      "ained": 1558,
      "ator": 1559,
      "Ġmonth": 1560,
      "Ġhead": 1561,
      "Ġhig": 1562,
      "Ġbenef": 1563,
      "ones": 1564,
      "ision": 1565,
      "osp": 1566,
      "Ġbook": 1567,
      "Ġmillion": 1568,
      "ĠRe": 1569,
      "Ġfeel": 1570,
      "Ġimpact": 1571,
      "view": 1572,
      "ised": 1573,
      "cially": 1574,
      "Ġbi": 1575,
      "ention": 1576,
      "Ġ15": 1577,
      "Ġunt": 1578,
      "Ġoper": 1579,
      "ĠCent": 1580,
      "Ġsay": 1581,
      "Ġfin": 1582,
      "ateg": 1583,
      "ients": 1584,
      "imes": 1585,
      "Ġbased": 1586,
      "Ġobject": 1587,
      "ling": 1588,
      "Ġthink": 1589,
      "Ġproblem": 1590,
      "pect": 1591,
      "Ġopen": 1592,
      "Ġfocus": 1593,
      "oid": 1594,
      "Ġamong": 1595,
      "Ġcond": 1596,
      "Ġbus": 1597,
      "ĠWor": 1598,
      "ends": 1599,
      "Ġothers": 1600,
      "Ġaccess": 1601,
      "Ġstruct": 1602,
      "par": 1603,
      "How": 1604,
      "Ġlist": 1605,
      "be": 1606,
      "Ġtechnology": 1607,
      "ĠNational": 1608,
      "Ġpossible": 1609,
      "ptoms": 1610,
      "Ġprom": 1611,
      "Ġsignific": 1612,
      "amp": 1613,
      "Ġusually": 1614,
      "though": 1615,
      "ik": 1616,
      "urope": 1617,
      "Ġamount": 1618,
      "Ġlaw": 1619,
      "Ġgovernment": 1620,
      "Ġhard": 1621,
      "une": 1622,
      "ĠEar": 1623,
      "ĠTe": 1624,
      "Ġrun": 1625,
      "Ġlanguage": 1626,
      "Ġteac": 1627,
      "Ġpress": 1628,
      "ĠWhat": 1629,
      "Ġconn": 1630,
      "Ġaddition": 1631,
      "port": 1632,
      "Ġnon": 1633,
      "Ġtoday": 1634,
      "ret": 1635,
      "As": 1636,
      "ole": 1637,
      "Ġfac": 1638,
      ",\"": 1639,
      "Ġmaking": 1640,
      "Ġavailable": 1641,
      "Ġpost": 1642,
      "rist": 1643,
      "Ġlevels": 1644,
      "Ġspace": 1645,
      "Ġcreate": 1646,
      "Ġlim": 1647,
      "Ġlet": 1648,
      "Ġcentury": 1649,
      "ooks": 1650,
      "Ġess": 1651,
      "ething": 1652,
      "Ġeducation": 1653,
      "Ġfre": 1654,
      "icult": 1655,
      "There": 1656,
      "Ġsays": 1657,
      "Ġagainst": 1658,
      "Ġmen": 1659,
      "Ġcertain": 1660,
      "Ġcome": 1661,
      "idence": 1662,
      "omp": 1663,
      "Ġey": 1664,
      "Ġcost": 1665,
      "ĠAf": 1666,
      "Ġel": 1667,
      "Ġplants": 1668,
      "ĠEn": 1669,
      "Ġlittle": 1670,
      "face": 1671,
      "cient": 1672,
      "Ġindust": 1673,
      "sy": 1674,
      "Ġtemper": 1675,
      "rap": 1676,
      "alk": 1677,
      "Ġshort": 1678,
      "Ġ17": 1679,
      "Ġwords": 1680,
      "Ġvir": 1681,
      "ĠEurope": 1682,
      "Ġsw": 1683,
      "obal": 1684,
      "Ġrad": 1685,
      "abor": 1686,
      "ape": 1687,
      "ended": 1688,
      "Ġtreatment": 1689,
      "If": 1690,
      "Ġparent": 1691,
      "ortun": 1692,
      "ank": 1693,
      "Ġfree": 1694,
      "ope": 1695,
      "ring": 1696,
      "Ġchem": 1697,
      "ilar": 1698,
      "Ġintern": 1699,
      "Ġpast": 1700,
      "Ġwhy": 1701,
      "Ġput": 1702,
      "Ġmult": 1703,
      "hem": 1704,
      "sc": 1705,
      "ĠQ": 1706,
      "Ġacross": 1707,
      "ably": 1708,
      "etic": 1709,
      "Ġassoci": 1710,
      "Ġsystems": 1711,
      "Ġalong": 1712,
      "Ġtypes": 1713,
      "br": 1714,
      "ox": 1715,
      "atory": 1716,
      "Ġdue": 1717,
      "Ġcourse": 1718,
      "Ġlocal": 1719,
      "erc": 1720,
      "St": 1721,
      "Ġconsum": 1722,
      "Ġvol": 1723,
      "Ġview": 1724,
      "ression": 1725,
      "Ġbehav": 1726,
      "Ġill": 1727,
      "Ġdel": 1728,
      "Ġsomething": 1729,
      "Ġresearchers": 1730,
      "Ġfunction": 1731,
      "Ġways": 1732,
      "Ġcir": 1733,
      "ances": 1734,
      "Ġworks": 1735,
      "ledge": 1736,
      "Ġbegin": 1737,
      "Ġdays": 1738,
      "Ġturn": 1739,
      "ĠComm": 1740,
      "Ġdra": 1741,
      "Ġpopulation": 1742,
      "Ġtru": 1743,
      "Ġfar": 1744,
      "elf": 1745,
      "ont": 1746,
      "ided": 1747,
      "ique": 1748,
      "Ġcomb": 1749,
      "Ġdam": 1750,
      "aves": 1751,
      "Ġdeterm": 1752,
      "Ġrecord": 1753,
      "Ġdeath": 1754,
      "Ġcr": 1755,
      "Ġmot": 1756,
      "Ġtool": 1757,
      "Ġgr": 1758,
      "Ġuntil": 1759,
      "Ġsuccess": 1760,
      "Ġbro": 1761,
      "over": 1762,
      "resent": 1763,
      "Ġkey": 1764,
      "Ġrele": 1765,
      "ured": 1766,
      "Ġlikely": 1767,
      "Ġtemperature": 1768,
      "ĠBe": 1769,
      "ication": 1770,
      "ately": 1771,
      "Ġsignificant": 1772,
      "aster": 1773,
      "olution": 1774,
      "Ġfil": 1775,
      "Ġ12": 1776,
      "ĠZ": 1777,
      "Ġvarious": 1778,
      "ggest": 1779,
      "asing": 1780,
      ".,": 1781,
      "work": 1782,
      "Ġconditions": 1783,
      "af": 1784,
      "Ġsymptoms": 1785,
      "Ġappear": 1786,
      "stit": 1787,
      "Ġlater": 1788,
      "pecially": 1789,
      "Ġrece": 1790,
      "ators": 1791,
      "Ġdifficult": 1792,
      "ĠAfric": 1793,
      "hern": 1794,
      "Ġsing": 1795,
      "ĠOr": 1796,
      "Ġprofess": 1797,
      "Ġcolle": 1798,
      "most": 1799,
      "Ġterm": 1800,
      "Ġscience": 1801,
      "Ġdescrib": 1802,
      "vious": 1803,
      "Ġincrease": 1804,
      "ending": 1805,
      "of": 1806,
      "idd": 1807,
      "atch": 1808,
      "sw": 1809,
      "Ġspecific": 1810,
      "Ġ199": 1811,
      "ems": 1812,
      "Ġdiscuss": 1813,
      "Ġskills": 1814,
      "uture": 1815,
      "ours": 1816,
      "Ġtoget": 1817,
      "ruction": 1818,
      "Ġtogether": 1819,
      "Ġgiven": 1820,
      "ĠUS": 1821,
      "Ġcommunity": 1822,
      "Ġspecial": 1823,
      "ĠEnglish": 1824,
      "An": 1825,
      "Ġneeds": 1826,
      "oad": 1827,
      "inking": 1828,
      "agement": 1829,
      "Ġmov": 1830,
      "Ġteam": 1831,
      "aps": 1832,
      "Ġsuggest": 1833,
      "Ġcountries": 1834,
      "Ġalways": 1835,
      "Ġenc": 1836,
      "Ġtri": 1837,
      "omes": 1838,
      "__": 1839,
      "ploy": 1840,
      "aching": 1841,
      "Ġcharacter": 1842,
      "aken": 1843,
      "ored": 1844,
      "Ġexperience": 1845,
      "por": 1846,
      "Ġcase": 1847,
      "aces": 1848,
      "cul": 1849,
      "ither": 1850,
      "Ġtext": 1851,
      "Ġdig": 1852,
      "ode": 1853,
      "ences": 1854,
      "ĠBrit": 1855,
      "10": 1856,
      "Ġnut": 1857,
      "Ġchanges": 1858,
      "oot": 1859,
      "ĠWorld": 1860,
      "Ġword": 1861,
      "bon": 1862,
      "ĠWar": 1863,
      "Ġeffective": 1864,
      "Ġresults": 1865,
      "ilt": 1866,
      "Ġarticle": 1867,
      "Ġworking": 1868,
      "Ġstory": 1869,
      "Ġsum": 1870,
      "ĠBl": 1871,
      "Ġphysical": 1872,
      "Ġprotect": 1873,
      "ribut": 1874,
      "ged": 1875,
      "When": 1876,
      "ym": 1877,
      "rug": 1878,
      "Ġkind": 1879,
      "Ġimprove": 1880,
      "ned": 1881,
      "overed": 1882,
      "ember": 1883,
      "Ġobs": 1884,
      "Ġapplic": 1885,
      "Ġgive": 1886,
      "Ġer": 1887,
      "Ġclimate": 1888,
      "aring": 1889,
      "Ġinvest": 1890,
      "Ġbig": 1891,
      "ilities": 1892,
      "Ġleast": 1893,
      "alf": 1894,
      "ĠSc": 1895,
      "ĠMed": 1896,
      "urther": 1897,
      "omet": 1898,
      "amm": 1899,
      "Ġlive": 1900,
      "Ġmakes": 1901,
      "Ġgre": 1902,
      "Ġ16": 1903,
      "Ġespecially": 1904,
      "Ġcy": 1905,
      "Ġactivities": 1906,
      "not": 1907,
      "Ġhigher": 1908,
      "ormal": 1909,
      "ane": 1910,
      "by": 1911,
      "Ġprim": 1912,
      "Ġsimilar": 1913,
      "ables": 1914,
      "Ġbelow": 1915,
      "Ġpaper": 1916,
      "Ġsens": 1917,
      "Ġ$": 1918,
      "Ġdeveloped": 1919,
      "ee": 1920,
      "Ġsun": 1921,
      "aining": 1922,
      "ales": 1923,
      "Ġenough": 1924,
      "Ġet": 1925,
      "ially": 1926,
      "ĠEarth": 1927,
      "ires": 1928,
      "duct": 1929,
      "Ġfull": 1930,
      "Ġrange": 1931,
      "eds": 1932,
      "Ġtry": 1933,
      "Ġphot": 1934,
      "Ġnext": 1935,
      "For": 1936,
      "Ġauthor": 1937,
      "aut": 1938,
      "ae": 1939,
      "Ġcity": 1940,
      "oney": 1941,
      "Ġstep": 1942,
      "Ġstrong": 1943,
      "Ġfuture": 1944,
      "acc": 1945,
      "Ġchall": 1946,
      "ĠAll": 1947,
      "ciety": 1948,
      "ĠOn": 1949,
      "Ġaccording": 1950,
      "Ġside": 1951,
      "Ġknowledge": 1952,
      "ĠSome": 1953,
      "Ġexist": 1954,
      "Ġsoil": 1955,
      "Ġresources": 1956,
      "Ġcomplete": 1957,
      "Ġleft": 1958,
      "Ġcrit": 1959,
      "oint": 1960,
      "orts": 1961,
      "Ġrespons": 1962,
      "âĢĵ": 1963,
      "ĠChrist": 1964,
      "iting": 1965,
      "Ġflu": 1966,
      "Ġskin": 1967,
      "ument": 1968,
      "Ġloss": 1969,
      "mit": 1970,
      "ĠHealth": 1971,
      "Ġground": 1972,
      "Ġ'": 1973,
      "Ġaway": 1974,
      "ush": 1975,
      "Ġnet": 1976,
      "Ġstudies": 1977,
      "Ġlot": 1978,
      "AS": 1979,
      "Ġmic": 1980,
      "Ġred": 1981,
      "let": 1982,
      "oring": 1983,
      "Ġcases": 1984,
      "Ġbecame": 1985,
      "min": 1986,
      "thing": 1987,
      "50": 1988,
      "Ġbusiness": 1989,
      "verage": 1990,
      "oman": 1991,
      "Ġwind": 1992,
      "Ġadult": 1993,
      "Ġpolit": 1994,
      "ray": 1995,
      "Ġsimple": 1996,
      "Ġlower": 1997,
      "Ġweek": 1998,
      "Ġconcept": 1999,
      "Ġsurface": 2000,
      "Ġgrowth": 2001,
      "side": 2002,
      "Ġintrodu": 2003,
      "Ġactivity": 2004,
      "ler": 2005,
      "Ġcreated": 2006,
      "Ġclear": 2007,
      "Ġeffects": 2008,
      "Ġhaving": 2009,
      "Ġwide": 2010,
      "Ġrole": 2011,
      "ipp": 2012,
      "Ġestab": 2013,
      "Ġz": 2014,
      "Ġrequire": 2015,
      "Ġanimals": 2016,
      "ands": 2017,
      "Ġsubject": 2018,
      "Ġhowever": 2019,
      "ĠDr": 2020,
      "Ġhouse": 2021,
      "ohn": 2022,
      "ĠAmerica": 2023,
      "ung": 2024,
      "leep": 2025,
      "cience": 2026,
      "Ġabove": 2027,
      "acy": 2028,
      "Ġfat": 2029,
      "ott": 2030,
      "Ġpatients": 2031,
      "chie": 2032,
      "Ġfive": 2033,
      "Ġpublished": 2034,
      "Ġsound": 2035,
      "Ġbuilding": 2036,
      "selves": 2037,
      "Ġquestions": 2038,
      "ĠGod": 2039,
      "ream": 2040,
      "Ġmaterials": 2041,
      "ĠWith": 2042,
      "Ġhealthy": 2043,
      "Ġline": 2044,
      "Ġproducts": 2045,
      "Ġgeneral": 2046,
      "ips": 2047,
      "ising": 2048,
      "Ġwr": 2049,
      "Ġann": 2050,
      "ites": 2051,
      "Ġinflu": 2052,
      "Ġproduction": 2053,
      "Ġfall": 2054,
      "Ġwhite": 2055,
      "ooking": 2056,
      "Ġglobal": 2057,
      "ints": 2058,
      "Ġengine": 2059,
      "Ġur": 2060,
      "Ġgreen": 2061,
      "ges": 2062,
      "Ġquestion": 2063,
      "Ġsource": 2064,
      "Ġcomputer": 2065,
      "Ġgoing": 2066,
      "Ġquality": 2067,
      "Ġtradition": 2068,
      "Ġnecess": 2069,
      "ches": 2070,
      "Ġpred": 2071,
      "Ġsite": 2072,
      "earch": 2073,
      "ĠNorth": 2074,
      "ĠCal": 2075,
      "ĠOne": 2076,
      "Ġ0": 2077,
      "ĠGerm": 2078,
      "amin": 2079,
      "gest": 2080,
      "ĠStud": 2081,
      "ysis": 2082,
      "Ġclose": 2083,
      "Ġaccount": 2084,
      "ĠIntern": 2085,
      "ird": 2086,
      "...": 2087,
      "Ġ[": 2088,
      "Ġsize": 2089,
      "Ġgas": 2090,
      "Ġstudent": 2091,
      "Ġcollect": 2092,
      "Ġwhether": 2093,
      "Ġunderstanding": 2094,
      "oon": 2095,
      "Ġseen": 2096,
      "Ġopt": 2097,
      "Ġmedical": 2098,
      "Ġcomes": 2099,
      "Ġ30": 2100,
      "isc": 2101,
      "app": 2102,
      "ison": 2103,
      "Ġliving": 2104,
      "ery": 2105,
      "Ġfeature": 2106,
      "Ġ.": 2107,
      "osis": 2108,
      "istic": 2109,
      "Ġcondition": 2110,
      "Ġevent": 2111,
      "Ġparticip": 2112,
      "Ġreduce": 2113,
      "18": 2114,
      "apt": 2115,
      "Ġbat": 2116,
      "Ġprop": 2117,
      "Ġrepresent": 2118,
      "nal": 2119,
      "Ġchemical": 2120,
      "Ġfield": 2121,
      "ĠThat": 2122,
      "Ġmass": 2123,
      "Ġfru": 2124,
      "Ġconcer": 2125,
      "ley": 2126,
      "Ġpressure": 2127,
      "Ġsure": 2128,
      "ĠCar": 2129,
      "Ġnever": 2130,
      "Ġrecogn": 2131,
      "tt": 2132,
      "ĠSouth": 2133,
      "Ġcut": 2134,
      "idered": 2135,
      "ready": 2136,
      "Ġsingle": 2137,
      "Ġdeg": 2138,
      "Ġweight": 2139,
      "unt": 2140,
      "ccording": 2141,
      "Ġissues": 2142,
      "Ġrelations": 2143,
      "Ġmind": 2144,
      "rams": 2145,
      "Ġactually": 2146,
      "light": 2147,
      "augh": 2148,
      "lement": 2149,
      "Ġcauses": 2150,
      "Ġcirc": 2151,
      "ĠGe": 2152,
      "Ġfish": 2153,
      "Ġscientists": 2154,
      "Ġparents": 2155,
      "Ġansw": 2156,
      "Ġself": 2157,
      "Ġconsider": 2158,
      "Ġpotential": 2159,
      "ĠGo": 2160,
      "rel": 2161,
      "Ġhistor": 2162,
      "Ġreason": 2163,
      "oura": 2164,
      "oles": 2165,
      "ency": 2166,
      "Ġachie": 2167,
      "Ġens": 2168,
      "edi": 2169,
      "Ġeff": 2170,
      "ctor": 2171,
      "Ġability": 2172,
      "To": 2173,
      "Ġask": 2174,
      "fact": 2175,
      "ibr": 2176,
      "Ġparts": 2177,
      "Ġprovides": 2178,
      "Ġreading": 2179,
      "Ġreally": 2180,
      "Ġfamil": 2181,
      "Ġdiet": 2182,
      "Ġver": 2183,
      "Ġgroups": 2184,
      "for": 2185,
      "ĠLe": 2186,
      "Ġconsidered": 2187,
      "Ġstat": 2188,
      "ER": 2189,
      "Ġtell": 2190,
      "like": 2191,
      "Ġfund": 2192,
      "Ġdrug": 2193,
      "NA": 2194,
      "Ġindic": 2195,
      "Ġblack": 2196,
      "Ġaddress": 2197,
      "Ġdetail": 2198,
      "Ġfrequ": 2199,
      "Ġarch": 2200,
      "Ch": 2201,
      "abet": 2202,
      "Ġproduce": 2203,
      "Ġstress": 2204,
      "ivil": 2205,
      "Ġvalue": 2206,
      "ening": 2207,
      "Ġquick": 2208,
      "ĠSy": 2209,
      "ival": 2210,
      "Ġtoward": 2211,
      "ĠAust": 2212,
      "Ġassociated": 2213,
      "mber": 2214,
      "put": 2215,
      "erence": 2216,
      "Ġrecent": 2217,
      "Ġrelated": 2218,
      "Ġoil": 2219,
      "Ġalready": 2220,
      "ule": 2221,
      "Ġsitu": 2222,
      "Ġlay": 2223,
      "reme": 2224,
      "ivity": 2225,
      "Ġdog": 2226,
      "ok": 2227,
      "abit": 2228,
      "Ġrate": 2229,
      "Ġprob": 2230,
      "ĠNe": 2231,
      "Ġonce": 2232,
      "Ġfri": 2233,
      "Ġeither": 2234,
      "sych": 2235,
      "inci": 2236,
      "Ġvide": 2237,
      "ĠGen": 2238,
      "Ġpopular": 2239,
      "Ġdone": 2240,
      "Ġcaused": 2241,
      "ĠJohn": 2242,
      "Ġmodel": 2243,
      "Wh": 2244,
      "Ġalmost": 2245,
      "Ġge": 2246,
      "You": 2247,
      "Al": 2248,
      "12": 2249,
      "ification": 2250,
      "Ġmodern": 2251,
      "Ġfactors": 2252,
      "aging": 2253,
      "Ġexperien": 2254,
      "ĠSchool": 2255,
      "Ġthought": 2256,
      "ask": 2257,
      "Ġdoc": 2258,
      "ump": 2259,
      "erve": 2260,
      "lying": 2261,
      "ued": 2262,
      "Ġopportun": 2263,
      "Ġbacter": 2264,
      "inter": 2265,
      "ĠIm": 2266,
      "Ġnational": 2267,
      "ublic": 2268,
      "ann": 2269,
      "Ġcolor": 2270,
      "val": 2271,
      "Ġhalf": 2272,
      "Ġdisord": 2273,
      "Ġ14": 2274,
      "Ġ|": 2275,
      "onst": 2276,
      "Ġast": 2277,
      "Ġnature": 2278,
      "ervation": 2279,
      "Ġincreased": 2280,
      "Ġpractice": 2281,
      "Ġinj": 2282,
      "Ġcomplex": 2283,
      "ĠDep": 2284,
      "oes": 2285,
      "Ġidea": 2286,
      "ores": 2287,
      "Ġneg": 2288,
      "ections": 2289,
      "Ġtot": 2290,
      "Ġcoll": 2291,
      "Ġinit": 2292,
      "roll": 2293,
      "enn": 2294,
      "artment": 2295,
      "Ġregion": 2296,
      "rown": 2297,
      "Ġthroughout": 2298,
      "ĠAb": 2299,
      "Ġenvironmental": 2300,
      "urs": 2301,
      "iction": 2302,
      "oll": 2303,
      "Ġsent": 2304,
      "Ġabs": 2305,
      "fficient": 2306,
      "Ġbegan": 2307,
      "ĠBy": 2308,
      "Ġsoft": 2309,
      "oose": 2310,
      "Ġsuff": 2311,
      "Ġpoll": 2312,
      "ma": 2313,
      "ried": 2314,
      "Ġoffic": 2315,
      "aim": 2316,
      "uel": 2317,
      "rict": 2318,
      "Ġtaken": 2319,
      "Ġmeet": 2320,
      "Ġcame": 2321,
      "ronic": 2322,
      "Ġexerc": 2323,
      "Ġdesigned": 2324,
      "Ġheat": 2325,
      "Ġvariety": 2326,
      "iding": 2327,
      "Ġlives": 2328,
      "Ġwhole": 2329,
      "Ġcat": 2330,
      "Ġpurp": 2331,
      "inc": 2332,
      "Ġla": 2333,
      "Ġsal": 2334,
      "Ġincludes": 2335,
      "lands": 2336,
      "Ġshows": 2337,
      "urity": 2338,
      "astic": 2339,
      "emic": 2340,
      "Ġfurther": 2341,
      "Ġstates": 2342,
      "Ġmonths": 2343,
      "iddle": 2344,
      "Ġliter": 2345,
      "ibility": 2346,
      "Ġrather": 2347,
      "Ġevidence": 2348,
      "Ġwriting": 2349,
      "sh": 2350,
      "Ġce": 2351,
      "eding": 2352,
      "Ġonline": 2353,
      "Ġkids": 2354,
      "Ġprote": 2355,
      "illed": 2356,
      "plic": 2357,
      "Ġever": 2358,
      "ĠMay": 2359,
      "ĠHist": 2360,
      "ĠMar": 2361,
      "Ġlink": 2362,
      "Ġcarbon": 2363,
      "erous": 2364,
      "30": 2365,
      "ĠFl": 2366,
      "Ġhold": 2367,
      "Ġmedic": 2368,
      "ĠShe": 2369,
      "aged": 2370,
      "Ġmeasure": 2371,
      "Ġsleep": 2372,
      "Ġ=": 2373,
      "ze": 2374,
      "ES": 2375,
      "Ġ11": 2376,
      "Ġpolic": 2377,
      "Ġ100": 2378,
      "Ġincreasing": 2379,
      "ensive": 2380,
      "vere": 2381,
      "Ġdom": 2382,
      "Ġbuilt": 2383,
      "Ġeat": 2384,
      "iam": 2385,
      "ĠCanad": 2386,
      "Ġemploy": 2387,
      "ging": 2388,
      "Ġwild": 2389,
      "ĠAct": 2390,
      "Ġspread": 2391,
      "Ġreact": 2392,
      "aced": 2393,
      "sp": 2394,
      "Ġport": 2395,
      "Ġeasy": 2396,
      "Ġdiagn": 2397,
      "ricult": 2398,
      "ney": 2399,
      "Ġschools": 2400,
      "Ġrecomm": 2401,
      "ĠAm": 2402,
      "Ġthemselves": 2403,
      "based": 2404,
      "Ġpattern": 2405,
      "rated": 2406,
      "Ġentire": 2407,
      "Ġfarm": 2408,
      "âĢ¦": 2409,
      "Ġeconomic": 2410,
      "Ġneeded": 2411,
      "urch": 2412,
      "Ġbasic": 2413,
      "Ġconduct": 2414,
      "Ġago": 2415,
      "ming": 2416,
      "ront": 2417,
      "Ġuses": 2418,
      "iol": 2419,
      "yn": 2420,
      "ened": 2421,
      "Ġassess": 2422,
      "epend": 2423,
      "Ġclean": 2424,
      "ournal": 2425,
      "ĠMan": 2426,
      "Ġemer": 2427,
      "acks": 2428,
      "Ġelectric": 2429,
      "ĠCont": 2430,
      "Ġsix": 2431,
      "estern": 2432,
      "Ġdest": 2433,
      "ese": 2434,
      "Ġfoods": 2435,
      "pid": 2436,
      "amed": 2437,
      "Ġrelationship": 2438,
      "Ġ50": 2439,
      "Ġinteract": 2440,
      "ply": 2441,
      "Ġlab": 2442,
      "reg": 2443,
      "itud": 2444,
      "pro": 2445,
      "iation": 2446,
      "Ġcop": 2447,
      "Ġmusic": 2448,
      "oph": 2449,
      "Ġsomet": 2450,
      "rate": 2451,
      "apan": 2452,
      "Ġcho": 2453,
      "fer": 2454,
      "Ġmanagement": 2455,
      "Ġhelps": 2456,
      "ĠWhile": 2457,
      "Ġmeaning": 2458,
      "Ġtravel": 2459,
      "Ġmach": 2460,
      "Ġcontain": 2461,
      "icles": 2462,
      "ises": 2463,
      "hing": 2464,
      "Ġstrateg": 2465,
      "eb": 2466,
      "Ġorigin": 2467,
      "eter": 2468,
      "Ġmaint": 2469,
      "Ġbreak": 2470,
      "chan": 2471,
      "ww": 2472,
      "Ġrequired": 2473,
      "Ġstructure": 2474,
      "Ġrelig": 2475,
      "Ġaverage": 2476,
      "hib": 2477,
      "Ġvers": 2478,
      "aily": 2479,
      "Ġsurv": 2480,
      "Ġsubst": 2481,
      "Ġmoney": 2482,
      "duc": 2483,
      "oses": 2484,
      "Ġpay": 2485,
      "Ġfail": 2486,
      "Ġmembers": 2487,
      "utes": 2488,
      "Ġjob": 2489,
      "ĠBritish": 2490,
      "yle": 2491,
      "Ġsafe": 2492,
      "Ġpict": 2493,
      "ades": 2494,
      "Ġfire": 2495,
      "ĠScience": 2496,
      "istics": 2497,
      "Ġtook": 2498,
      "Ġgrowing": 2499,
      "Ġcontent": 2500,
      "Ġtaking": 2501,
      "Ġindividuals": 2502,
      "ows": 2503,
      "ĠState": 2504,
      "rim": 2505,
      "Ġpath": 2506,
      "Ġdeveloping": 2507,
      "Ġbenefits": 2508,
      "Ġbar": 2509,
      "Ġindustry": 2510,
      "Ġitself": 2511,
      "gar": 2512,
      "sequ": 2513,
      "Ġavoid": 2514,
      "uck": 2515,
      "ober": 2516,
      "Ġrights": 2517,
      "room": 2518,
      "Ġpage": 2519,
      "hood": 2520,
      "Ġbab": 2521,
      "Ġcannot": 2522,
      "ĠGu": 2523,
      "ils": 2524,
      "go": 2525,
      "anced": 2526,
      "Ġsometimes": 2527,
      "vey": 2528,
      "Ġec": 2529,
      "Ġwood": 2530,
      "Ġdamage": 2531,
      "ched": 2532,
      "Ġearth": 2533,
      "Ġidentify": 2534,
      "rad": 2535,
      "Ġstop": 2536,
      "Ġmarket": 2537,
      "ai": 2538,
      "AT": 2539,
      "Ġhours": 2540,
      "Ġvirus": 2541,
      "utions": 2542,
      "nces": 2543,
      "Ġbur": 2544,
      "ĠInstit": 2545,
      "Ġ13": 2546,
      "ules": 2547,
      "But": 2548,
      "oor": 2549,
      "Ġprevious": 2550,
      "Ġforest": 2551,
      "Ġut": 2552,
      "abetes": 2553,
      "Ġteachers": 2554,
      "Ġapproach": 2555,
      "Ġsuper": 2556,
      "ĠComp": 2557,
      "Ġpersonal": 2558,
      "Ġtree": 2559,
      "ĠRep": 2560,
      "Ġreturn": 2561,
      "Ġfig": 2562,
      "Ġbehavior": 2563,
      ".)": 2564,
      "Ġimage": 2565,
      "Ġled": 2566,
      "Ġnumbers": 2567,
      "Ġforms": 2568,
      "Ġveget": 2569,
      "Ġthreat": 2570,
      "ĠPe": 2571,
      "yl": 2572,
      "Ġarr": 2573,
      "Ġmethods": 2574,
      "Ġpolitical": 2575,
      "Ġseries": 2576,
      "Ġfeet": 2577,
      "Ġetc": 2578,
      "ĠEm": 2579,
      "Ġlif": 2580,
      "ĠAfter": 2581,
      "aches": 2582,
      "Ġdiseases": 2583,
      "ĠAustral": 2584,
      "issions": 2585,
      "Ġtar": 2586,
      "onse": 2587,
      "izing": 2588,
      "Ġ--": 2589,
      "Ġtotal": 2590,
      "rought": 2591,
      "Ġsqu": 2592,
      "olic": 2593,
      "Ġsepar": 2594,
      "Ġsources": 2595,
      "imately": 2596,
      "AR": 2597,
      "Ġyet": 2598,
      "Ġprinci": 2599,
      "ĠResearch": 2600,
      "itary": 2601,
      "ength": 2602,
      "umb": 2603,
      "Ġservices": 2604,
      "Ġrefer": 2605,
      "Ġdraw": 2606,
      "Ġexperim": 2607,
      "Ġterms": 2608,
      "ederal": 2609,
      "aving": 2610,
      "Ġnormal": 2611,
      "ume": 2612,
      "ĠJapan": 2613,
      "Ġthing": 2614,
      "Ġlonger": 2615,
      "ĠX": 2616,
      "Ġmor": 2617,
      "Ġregular": 2618,
      "Ġserious": 2619,
      "Ġsense": 2620,
      "inary": 2621,
      "lies": 2622,
      "Ġslow": 2623,
      "Ġessential": 2624,
      "ufact": 2625,
      "Ġnecessary": 2626,
      "Ġmatter": 2627,
      "Ġdeep": 2628,
      "Ġsam": 2629,
      "Ġwritten": 2630,
      "Ġcompon": 2631,
      "Ġtrees": 2632,
      "Ġwarm": 2633,
      "Ġanalysis": 2634,
      "Ġanimal": 2635,
      "Ġsolar": 2636,
      "Ġ198": 2637,
      "ulations": 2638,
      "hold": 2639,
      "Ġsat": 2640,
      "Ġchalleng": 2641,
      "Ġaction": 2642,
      "Ġste": 2643,
      "Ġobserv": 2644,
      "ively": 2645,
      "Ġsust": 2646,
      "Ġgard": 2647,
      "Ġunique": 2648,
      "ctions": 2649,
      "Ġdefin": 2650,
      "Ġupon": 2651,
      "Ġmultip": 2652,
      "Ġsociety": 2653,
      "asc": 2654,
      "uge": 2655,
      "Ġevents": 2656,
      "Ġfem": 2657,
      "Ġbring": 2658,
      "iet": 2659,
      "Ġarg": 2660,
      "ript": 2661,
      "place": 2662,
      "Ġharm": 2663,
      "Ġsex": 2664,
      "rapy": 2665,
      "elling": 2666,
      "Ġmicro": 2667,
      "Ġface": 2668,
      "Ġproduced": 2669,
      "rial": 2670,
      "mon": 2671,
      "Ġmovement": 2672,
      "ĠCount": 2673,
      "reng": 2674,
      "Ġhumans": 2675,
      "ĠKing": 2676,
      "Ġsafety": 2677,
      "Ġsea": 2678,
      "fully": 2679,
      "ender": 2680,
      "Ġteeth": 2681,
      "itation": 2682,
      "ID": 2683,
      "Ġissue": 2684,
      "Ġextreme": 2685,
      "cean": 2686,
      "Ġinside": 2687,
      "uries": 2688,
      "ĠDay": 2689,
      "ĠCenter": 2690,
      "Ġtiss": 2691,
      "Ġeye": 2692,
      "ground": 2693,
      "Ġinteg": 2694,
      "Ġstandard": 2695,
      "Ġox": 2696,
      "Ġattention": 2697,
      "ban": 2698,
      "Ġtraining": 2699,
      "lex": 2700,
      "ights": 2701,
      "Ġshare": 2702,
      "ĠCo": 2703,
      "ĠIndia": 2704,
      "Ġaware": 2705,
      "IS": 2706,
      "rench": 2707,
      "Ġsimply": 2708,
      "Ġvideo": 2709,
      "IN": 2710,
      "lt": 2711,
      "Ġemot": 2712,
      "Ġ25": 2713,
      "ellow": 2714,
      "ĠHis": 2715,
      "Ġvacc": 2716,
      "het": 2717,
      "Ġlate": 2718,
      "udd": 2719,
      "Ġseem": 2720,
      "iforn": 2721,
      "Ġprograms": 2722,
      "Ġbooks": 2723,
      "verse": 2724,
      "aries": 2725,
      "Ġdang": 2726,
      "Ġencoura": 2727,
      "ĠMany": 2728,
      "Ġvisit": 2729,
      "Ġheav": 2730,
      "Ġshown": 2731,
      "Ġculture": 2732,
      "ene": 2733,
      "ĠDes": 2734,
      "Ġexc": 2735,
      "rans": 2736,
      "Ġpositive": 2737,
      "Ġthous": 2738,
      "mb": 2739,
      "ON": 2740,
      "Ġrelative": 2741,
      "ĠYork": 2742,
      "Ġtakes": 2743,
      "Ġtools": 2744,
      "Ġideas": 2745,
      "Ġconc": 2746,
      "lease": 2747,
      "Ġsomeone": 2748,
      "ĠPre": 2749,
      "Ġbelieve": 2750,
      "Ġdaily": 2751,
      "ĠEduc": 2752,
      "Ġstarted": 2753,
      "Ġoutside": 2754,
      "Ġcompany": 2755,
      "Ġjo": 2756,
      "Ġhyd": 2757,
      "Ġpsych": 2758,
      "Ġcontact": 2759,
      "11": 2760,
      "raft": 2761,
      "useum": 2762,
      "Ġmechan": 2763,
      "Ġbal": 2764,
      "usion": 2765,
      "Ġbacteria": 2766,
      "Ġmagn": 2767,
      "Ġancient": 2768,
      "know": 2769,
      "One": 2770,
      "Ġpoor": 2771,
      "Ġscientific": 2772,
      "Ġprint": 2773,
      "Ġprovided": 2774,
      "dom": 2775,
      "empt": 2776,
      "Ġpriv": 2777,
      "Ġwebs": 2778,
      "Ġtur": 2779,
      "asons": 2780,
      "Ġestim": 2781,
      "Ġgetting": 2782,
      "ography": 2783,
      "hest": 2784,
      "Ġparticularly": 2785,
      "Ġadults": 2786,
      "ifornia": 2787,
      "inks": 2788,
      "Ġtrue": 2789,
      "Ġregard": 2790,
      "Ġ/": 2791,
      "Ġ197": 2792,
      "Ġtarget": 2793,
      "ners": 2794,
      "overy": 2795,
      "Ġbirth": 2796,
      "my": 2797,
      "Ġinvolved": 2798,
      "ucle": 2799,
      "Ġlargest": 2800,
      "Ġpric": 2801,
      "minist": 2802,
      "ls": 2803,
      "Ġreported": 2804,
      "Ġmental": 2805,
      "Ġgenerally": 2806,
      "Ġeasily": 2807,
      "So": 2808,
      "Ġanswer": 2809,
      "ĠII": 2810,
      "ĠYour": 2811,
      "ns": 2812,
      "ĠPr": 2813,
      "alu": 2814,
      "Ġmanufact": 2815,
      "ropri": 2816,
      "Ġrev": 2817,
      "ĠPar": 2818,
      "Ġlooking": 2819,
      "Ġ196": 2820,
      "arily": 2821,
      "Ġinfection": 2822,
      "Ġlat": 2823,
      "Ġstra": 2824,
      "15": 2825,
      "On": 2826,
      "Ġallows": 2827,
      "Ġcheck": 2828,
      "Ġtraditional": 2829,
      "wh": 2830,
      "ĠPres": 2831,
      "ĠChild": 2832,
      "new": 2833,
      "Ġdetermine": 2834,
      "Ġposition": 2835,
      "Ġcover": 2836,
      "Ġresponse": 2837,
      "Ġstreng": 2838,
      "Ġcolon": 2839,
      "Ġhabit": 2840,
      "Ġdoing": 2841,
      "Ġwaste": 2842,
      "Ġservice": 2843,
      "Ġnation": 2844,
      "Ġprep": 2845,
      "rast": 2846,
      "atives": 2847,
      "Ġcontains": 2848,
      "istance": 2849,
      "Ġdoesn": 2850,
      "bo": 2851,
      "ĠJew": 2852,
      "aff": 2853,
      "Ġclaim": 2854,
      "osure": 2855,
      "Ġgreater": 2856,
      "Ġlack": 2857,
      "Ġbehind": 2858,
      "Ġprimary": 2859,
      "Ġi": 2860,
      "aling": 2861,
      "Ġviol": 2862,
      "org": 2863,
      "ĠMost": 2864,
      "Ġsmo": 2865,
      "Ġcommunities": 2866,
      "ĠInstitute": 2867,
      "Ġborn": 2868,
      "Ġmedia": 2869,
      "Ġdeb": 2870,
      "Ġtown": 2871,
      "Ġ194": 2872,
      "Ġaim": 2873,
      "Ġoriginal": 2874,
      "By": 2875,
      "Ġir": 2876,
      "ĠCalifornia": 2877,
      "Ġmess": 2878,
      "Ġteaching": 2879,
      "Ġcorrect": 2880,
      "rior": 2881,
      "ecause": 2882,
      "Ġnight": 2883,
      "Ġimages": 2884,
      "ister": 2885,
      "Ġdry": 2886,
      "âĢ¢": 2887,
      "ĠHere": 2888,
      "ounds": 2889,
      "Ġquickly": 2890,
      "irm": 2891,
      "Ġreview": 2892,
      "oming": 2893,
      "rig": 2894,
      "itor": 2895,
      "Ġdispl": 2896,
      "ino": 2897,
      "undred": 2898,
      "Ġremov": 2899,
      "Ġfoot": 2900,
      "Ġcard": 2901,
      "Ġvit": 2902,
      "Ġdifference": 2903,
      "Ġprobably": 2904,
      "Ġcele": 2905,
      "ĠChina": 2906,
      "Ġdemonst": 2907,
      "ancy": 2908,
      "Ġlove": 2909,
      "Ġselect": 2910,
      "eration": 2911,
      "ĠEuropean": 2912,
      "Ġtend": 2913,
      "arr": 2914,
      "hel": 2915,
      "cies": 2916,
      "ties": 2917,
      "iques": 2918,
      "osing": 2919,
      "Ġwall": 2920,
      "osition": 2921,
      "itis": 2922,
      "Ġsummer": 2923,
      "Ġincluded": 2924,
      "bre": 2925,
      "part": 2926,
      "Ġnearly": 2927,
      "16": 2928,
      "rition": 2929,
      "ĠSu": 2930,
      "ĠPer": 2931,
      "nov": 2932,
      "Ġreve": 2933,
      "Ġlog": 2934,
      "ĠÂ": 2935,
      "Ġachieve": 2936,
      "Ġensure": 2937,
      "Ġsevere": 2938,
      "Ġleading": 2939,
      "Ġ40": 2940,
      "Ġdocument": 2941,
      "Ġleaves": 2942,
      "set": 2943,
      "ĠDepartment": 2944,
      "ĠCO": 2945,
      "orthern": 2946,
      "Ġquite": 2947,
      "wor": 2948,
      "Ġcompet": 2949,
      "Ġplanet": 2950,
      "where": 2951,
      "vention": 2952,
      "Ġcamp": 2953,
      "ĠAfrica": 2954,
      "Ġbra": 2955,
      "Ġimplement": 2956,
      "17": 2957,
      "ĠDo": 2958,
      "ĠAmericans": 2959,
      "Ġroad": 2960,
      "ĠMe": 2961,
      "fect": 2962,
      "Ġemb": 2963,
      "ĠLear": 2964,
      "Ġcompan": 2965,
      "Ġnews": 2966,
      "bor": 2967,
      "ĠApp": 2968,
      "Ġinvestig": 2969,
      "Ġfamilies": 2970,
      "Ġmill": 2971,
      "Ġattack": 2972,
      "ĠRiver": 2973,
      "Ġmultiple": 2974,
      "Ġpan": 2975,
      "Ġsil": 2976,
      "ĠQu": 2977,
      "Ġanaly": 2978,
      "uary": 2979,
      "Ġhar": 2980,
      "ana": 2981,
      "Ġcritical": 2982,
      "Ġlarger": 2983,
      "idge": 2984,
      "Ġdiabetes": 2985,
      "Ġexercise": 2986,
      "outhern": 2987,
      "ached": 2988,
      "ĠInt": 2989,
      "Ġcoast": 2990,
      "ops": 2991,
      "iter": 2992,
      "alking": 2993,
      "isions": 2994,
      "Ġhighly": 2995,
      "Ġegg": 2996,
      "Ġcapt": 2997,
      "Ġwrite": 2998,
      "Ġexact": 2999,
      "Ġdevices": 3000,
      "Ġsn": 3001,
      "Ġdark": 3002,
      "Ġbit": 3003,
      "Ġmiles": 3004,
      "ĠFr": 3005,
      "ext": 3006,
      "gency": 3007,
      "ĠAc": 3008,
      "ĠGl": 3009,
      "Ġveh": 3010,
      "Ġacid": 3011,
      "Ġcompared": 3012,
      "Ġindepend": 3013,
      "Ġtypically": 3014,
      "Ġinternational": 3015,
      "Ã©": 3016,
      "AN": 3017,
      "Ġcontinue": 3018,
      "Ġconsist": 3019,
      "Ġtransport": 3020,
      "ĠHistory": 3021,
      "ĠSec": 3022,
      "Ġsearch": 3023,
      "life": 3024,
      "Ġlocated": 3025,
      "Ġcross": 3026,
      "Ġagricult": 3027,
      "ĠUs": 3028,
      "Ġbeginning": 3029,
      "Ġeating": 3030,
      "right": 3031,
      "ĠWill": 3032,
      "Ġconcent": 3033,
      "Ġnetwork": 3034,
      "ĠMin": 3035,
      "oday": 3036,
      "Ġcool": 3037,
      "bol": 3038,
      "ĠFrench": 3039,
      "Ġsustain": 3040,
      "Ġreflect": 3041,
      "Ġtheory": 3042,
      "ĠMore": 3043,
      "Ġforce": 3044,
      "rogen": 3045,
      "ologies": 3046,
      "Ġbad": 3047,
      "ĠIndian": 3048,
      "Ġcit": 3049,
      "mar": 3050,
      "Ġpoints": 3051,
      "Ġfinan": 3052,
      "Ġfeed": 3053,
      "ĠGree": 3054,
      "Ġactive": 3055,
      "sect": 3056,
      "Ġcommonly": 3057,
      "Ġevalu": 3058,
      "Ġprogress": 3059,
      "Ġtalk": 3060,
      "Ġrare": 3061,
      "ĠJan": 3062,
      "Ġfeatures": 3063,
      "ĠNo": 3064,
      "Ġhot": 3065,
      "Ġrecently": 3066,
      "Ġgame": 3067,
      "Ġsupply": 3068,
      "ĠAfrican": 3069,
      "imum": 3070,
      "iency": 3071,
      "Ġcentral": 3072,
      "Ġadded": 3073,
      "yp": 3074,
      "Ġseason": 3075,
      "Ġhor": 3076,
      "He": 3077,
      "joy": 3078,
      "Ġattempt": 3079,
      "gn": 3080,
      "water": 3081,
      "ĠEd": 3082,
      "Ġelements": 3083,
      "ying": 3084,
      "year": 3085,
      "ension": 3086,
      "ashing": 3087,
      "Ġsugar": 3088,
      "Ġsurround": 3089,
      "Ġaccept": 3090,
      "Ġmount": 3091,
      "ribution": 3092,
      "Ġsoftware": 3093,
      "Ġdiscovered": 3094,
      "Ġtax": 3095,
      "cles": 3096,
      "Ġpatient": 3097,
      "ĠInf": 3098,
      "Ġthinking": 3099,
      "--": 3100,
      "Ġgoal": 3101,
      "cks": 3102,
      "coh": 3103,
      "Ġfront": 3104,
      "Ġhundred": 3105,
      "//": 3106,
      "Ġaltern": 3107,
      "itude": 3108,
      "Ġpurpose": 3109,
      "ĠCons": 3110,
      "OR": 3111,
      "Ġaspect": 3112,
      "ief": 3113,
      "idents": 3114,
      "Ġdigital": 3115,
      "hens": 3116,
      "Ġaud": 3117,
      "ĠOf": 3118,
      "mosp": 3119,
      "itect": 3120,
      "Ġcreating": 3121,
      "Ġice": 3122,
      "Ġlength": 3123,
      "Ġrout": 3124,
      "Ġnorth": 3125,
      "ĠPart": 3126,
      "Ġimportance": 3127,
      "Ġthird": 3128,
      "Ġfast": 3129,
      "Ġestablished": 3130,
      "Ġweb": 3131,
      "Ġdecre": 3132,
      "Ġbirds": 3133,
      "Ġextra": 3134,
      "13": 3135,
      "Ġweather": 3136,
      "Ġperformance": 3137,
      "Ġdou": 3138,
      "Ġspeak": 3139,
      "Ġuseful": 3140,
      "pril": 3141,
      "load": 3142,
      "Ġtechniques": 3143,
      "Ġteacher": 3144,
      "Ġcru": 3145,
      "iot": 3146,
      "Ġ24": 3147,
      "rs": 3148,
      "inct": 3149,
      "Ġhands": 3150,
      "These": 3151,
      "Ġrespect": 3152,
      "14": 3153,
      "ĠJu": 3154,
      "aly": 3155,
      "Ġprotein": 3156,
      "Ġoccurs": 3157,
      "Ġbreat": 3158,
      "isms": 3159,
      "Ġ2012": 3160,
      "Ġbroad": 3161,
      "Ġx": 3162,
      "erson": 3163,
      "Ġbeaut": 3164,
      "Ġexpress": 3165,
      "ibrary": 3166,
      "Ġspeed": 3167,
      "Ġcivil": 3168,
      "Ġbase": 3169,
      "Ġnegative": 3170,
      "Ġrain": 3171,
      "Ġminutes": 3172,
      "anks": 3173,
      "ha": 3174,
      "://": 3175,
      "Ġmole": 3176,
      "iece": 3177,
      "istry": 3178,
      "Ġinstead": 3179,
      "Ex": 3180,
      "Ġdirectly": 3181,
      "ields": 3182,
      "Ġsold": 3183,
      "Ġeyes": 3184,
      "Ġsouth": 3185,
      "cell": 3186,
      "Ġaccur": 3187,
      "At": 3188,
      "ropriate": 3189,
      "ĠFran": 3190,
      "pper": 3191,
      "ĠNot": 3192,
      "Ġcold": 3193,
      "pite": 3194,
      "IC": 3195,
      "Ġcust": 3196,
      "ĠRead": 3197,
      "ĠMon": 3198,
      "ching": 3199,
      "ĠCanada": 3200,
      "Ġshape": 3201,
      "Ġmemory": 3202,
      "Ġobjects": 3203,
      "Ġcontribut": 3204,
      "Ġstay": 3205,
      "Ġfuel": 3206,
      "term": 3207,
      "ulate": 3208,
      "Ġfram": 3209,
      "IV": 3210,
      "ius": 3211,
      "Ġoffer": 3212,
      "Ġprocesses": 3213,
      "Ġful": 3214,
      "Ġwinter": 3215,
      "Ġbul": 3216,
      "ĠEngland": 3217,
      "atur": 3218,
      "lied": 3219,
      "Ġaff": 3220,
      "Ġfib": 3221,
      "Ġofficial": 3222,
      "Ġolder": 3223,
      "ĠAug": 3224,
      "elt": 3225,
      "Ġapplications": 3226,
      "ĠEducation": 3227,
      "estic": 3228,
      "ĠProg": 3229,
      "ĠArt": 3230,
      "aught": 3231,
      "Ġfav": 3232,
      "wide": 3233,
      "odies": 3234,
      "Ġtests": 3235,
      "uth": 3236,
      "Ġpack": 3237,
      "Ġhost": 3238,
      "ĠAlthough": 3239,
      "Ġeth": 3240,
      "ech": 3241,
      "Ġenjoy": 3242,
      "na": 3243,
      "Ġproced": 3244,
      "Ġcommunication": 3245,
      "Ġquant": 3246,
      "Ġbillion": 3247,
      "Ġnamed": 3248,
      "ription": 3249,
      "'re": 3250,
      "Ġang": 3251,
      "ĠGerman": 3252,
      "gy": 3253,
      "ĠWest": 3254,
      "Ġrequires": 3255,
      "ĠKe": 3256,
      "Ġweeks": 3257,
      "Ġplaces": 3258,
      "Ġheld": 3259,
      "hemat": 3260,
      "ĠAg": 3261,
      "âĢĿ.": 3262,
      "entially": 3263,
      "ille": 3264,
      "ror": 3265,
      "With": 3266,
      "son": 3267,
      "Ġones": 3268,
      "Ġconstruction": 3269,
      "co": 3270,
      "Ġcode": 3271,
      "oud": 3272,
      "Ġrapid": 3273,
      "Ġrock": 3274,
      "resh": 3275,
      "Ġstri": 3276,
      "ĠFirst": 3277,
      "Ġcam": 3278,
      "Ġdoctor": 3279,
      "Ġreach": 3280,
      "Ġleaders": 3281,
      "cohol": 3282,
      "Ġcoun": 3283,
      "While": 3284,
      "Ġfa": 3285,
      "iers": 3286,
      "Ġcarry": 3287,
      "ĠCounty": 3288,
      "Ġreasons": 3289,
      "ĠHer": 3290,
      "Ġnucle": 3291,
      "Ġelectr": 3292,
      "Ġsection": 3293,
      "Ġlabor": 3294,
      "ĠOther": 3295,
      "Ġdevice": 3296,
      "cil": 3297,
      "Ġcenter": 3298,
      "ED": 3299,
      "Ġrob": 3300,
      "EN": 3301,
      "Ġbott": 3302,
      "Ġexpect": 3303,
      "ĠMarch": 3304,
      "Ġprojects": 3305,
      "Ġcra": 3306,
      "Ġprotection": 3307,
      "ift": 3308,
      "Ġlost": 3309,
      "iar": 3310,
      "Ġmouth": 3311,
      "Ġsoon": 3312,
      "Ġdiv": 3313,
      "ster": 3314,
      "Ġbaby": 3315,
      "oly": 3316,
      "Ġfight": 3317,
      "ĠHar": 3318,
      "head": 3319,
      "edia": 3320,
      "lier": 3321,
      "Ġemissions": 3322,
      "yond": 3323,
      "iles": 3324,
      "Ġsecurity": 3325,
      "Ġbehavi": 3326,
      "imal": 3327,
      "Ġillness": 3328,
      "Ġtowards": 3329,
      "ĠFrom": 3330,
      "Ġseems": 3331,
      "ĠSw": 3332,
      "vest": 3333,
      "haps": 3334,
      "Ġmiddle": 3335,
      "Ġstru": 3336,
      "Ġexamples": 3337,
      "fort": 3338,
      "ĠChar": 3339,
      "Ġimmedi": 3340,
      "Ġsites": 3341,
      "bit": 3342,
      "Ġalthough": 3343,
      "Ġaffected": 3344,
      "Ġlo": 3345,
      "Ġimag": 3346,
      "Ġfruit": 3347,
      "rees": 3348,
      "uman": 3349,
      "Ġteach": 3350,
      "Ġwhose": 3351,
      "Ġmilitary": 3352,
      "ĠSm": 3353,
      "ĠEl": 3354,
      "anish": 3355,
      "ĠJune": 3356,
      "ĠInternational": 3357,
      "Ġlines": 3358,
      "Ġvisual": 3359,
      "alled": 3360,
      "Ġtherefore": 3361,
      "Ġfile": 3362,
      "ĠPark": 3363,
      "ĠRec": 3364,
      "ĠAnt": 3365,
      "Ġcompanies": 3366,
      "Ġfinancial": 3367,
      "Ġclassroom": 3368,
      "Ġadditional": 3369,
      "ĠGreat": 3370,
      "Ġrates": 3371,
      "can": 3372,
      "lection": 3373,
      "izes": 3374,
      "ĠGra": 3375,
      "ASA": 3376,
      "ipment": 3377,
      "Ġresponsible": 3378,
      "Ġwebsite": 3379,
      "Ġpet": 3380,
      "Ġgives": 3381,
      "ĠReg": 3382,
      "come": 3383,
      "rag": 3384,
      "apter": 3385,
      "Ġmom": 3386,
      "Ġtable": 3387,
      "ilos": 3388,
      "ocks": 3389,
      "Ġ:": 3390,
      "exic": 3391,
      "inese": 3392,
      "Ġapprox": 3393,
      "Ġbrought": 3394,
      "Ġscreen": 3395,
      "____": 3396,
      "Ġatmosp": 3397,
      "IT": 3398,
      "Ġcommit": 3399,
      "Ġinstru": 3400,
      "Ġlimited": 3401,
      "ky": 3402,
      "Ġsus": 3403,
      "Ġpregn": 3404,
      "ĠTw": 3405,
      "tery": 3406,
      "ĠTechn": 3407,
      "vant": 3408,
      "Ġcommunic": 3409,
      "Ġapplication": 3410,
      "Ġbecomes": 3411,
      "Ġinsp": 3412,
      "olar": 3413,
      "Ġcultural": 3414,
      "Ġgenetic": 3415,
      "Ġcollection": 3416,
      "ula": 3417,
      "Ġwa": 3418,
      "PA": 3419,
      "Ġdead": 3420,
      "Ġremains": 3421,
      "Ġfit": 3422,
      "Ġcred": 3423,
      "Ġconnect": 3424,
      "aters": 3425,
      "Ġcurrently": 3426,
      "Ġfriends": 3427,
      "ĠAccording": 3428,
      "Ġpolicy": 3429,
      "Ġexposure": 3430,
      "Ġexplore": 3431,
      "ĠOct": 3432,
      "Ġcelebr": 3433,
      "Ġprior": 3434,
      "Ġinstit": 3435,
      "Ġsmaller": 3436,
      "imin": 3437,
      "omb": 3438,
      "Ġplastic": 3439,
      "Ġeverything": 3440,
      "osy": 3441,
      "Ġgarden": 3442,
      "Ġgoes": 3443,
      "izations": 3444,
      "Ġball": 3445,
      "Ġwond": 3446,
      "ĠApril": 3447,
      "ĠTra": 3448,
      "Ġ2010": 3449,
      "equ": 3450,
      "Ġpractices": 3451,
      "Ġnutri": 3452,
      "Ġnative": 3453,
      "ously": 3454,
      "Ġdecl": 3455,
      "Ġinfluence": 3456,
      "Ġcommer": 3457,
      "Ġimmune": 3458,
      "ulum": 3459,
      "rote": 3460,
      "Ġmix": 3461,
      "Res": 3462,
      "Ġtooth": 3463,
      "Ġblock": 3464,
      "Ġcalcul": 3465,
      "Ġadapt": 3466,
      "ĠSept": 3467,
      "Ġfederal": 3468,
      "Ġgradu": 3469,
      "Ġgot": 3470,
      "Ġep": 3471,
      "Ġsituation": 3472,
      "Ġisn": 3473,
      "Ġthousands": 3474,
      "Ġprec": 3475,
      "Ġtesting": 3476,
      "Ġclin": 3477,
      "Ġwent": 3478,
      "Ġtold": 3479,
      "Ġ21": 3480,
      "Ġmother": 3481,
      "Ġult": 3482,
      "Ġrich": 3483,
      "ribute": 3484,
      "Ġvalues": 3485,
      "Ġthus": 3486,
      "Ġ,": 3487,
      "ĠSystem": 3488,
      "Ġdate": 3489,
      "Ġtissue": 3490,
      "Ġ2011": 3491,
      "200": 3492,
      "Ġeveryone": 3493,
      "Ġspir": 3494,
      "Ġworkers": 3495,
      "book": 3496,
      "Ġcapac": 3497,
      "amb": 3498,
      "Ġdemand": 3499,
      "ĠDis": 3500,
      "Ġadop": 3501,
      "Ġgir": 3502,
      "Ġsigns": 3503,
      "Ġdisorder": 3504,
      "Ġautom": 3505,
      "used": 3506,
      "Ġrespond": 3507,
      "ĠOur": 3508,
      "According": 3509,
      "Ġswe": 3510,
      "Ġlocation": 3511,
      "Ġasked": 3512,
      "ĠRuss": 3513,
      "iny": 3514,
      "Ġtransl": 3515,
      "omy": 3516,
      "Ġefforts": 3517,
      "Ġsolution": 3518,
      "Some": 3519,
      "ĠWater": 3520,
      "ica": 3521,
      "Ġcosts": 3522,
      "Ġdescribed": 3523,
      "Ġelectricity": 3524,
      "Ġopportunity": 3525,
      "Ġsett": 3526,
      "eed": 3527,
      "att": 3528,
      "Ġinteresting": 3529,
      "Ġmap": 3530,
      "Ġmis": 3531,
      "Ġelse": 3532,
      "25": 3533,
      "ashington": 3534,
      "craft": 3535,
      "Ġchoose": 3536,
      "Ġdrugs": 3537,
      "ĠMus": 3538,
      "ĠAssoci": 3539,
      "Ġguide": 3540,
      "Ġtit": 3541,
      "rection": 3542,
      "Ġstandards": 3543,
      "ĠServ": 3544,
      "ĠMexic": 3545,
      "Ġrise": 3546,
      "ĠCity": 3547,
      "Ġusers": 3548,
      "Ġinsect": 3549,
      "Ġhistorical": 3550,
      "Ġsteps": 3551,
      "Ġtopic": 3552,
      "enge": 3553,
      "Ġarchitect": 3554,
      "ĠEach": 3555,
      "xi": 3556,
      "Ġhous": 3557,
      "ĠJes": 3558,
      "ĠPresident": 3559,
      "Ġstar": 3560,
      "fess": 3561,
      "Ġinterp": 3562,
      "Ġeducational": 3563,
      "ĠBar": 3564,
      "Ġdisp": 3565,
      "ygen": 3566,
      "Ġcapital": 3567,
      "Ġpen": 3568,
      "ĠAugust": 3569,
      "Ġmid": 3570,
      "Ġrules": 3571,
      "Ġcou": 3572,
      "Ġuser": 3573,
      "ĠAustralia": 3574,
      "Ġpiece": 3575,
      "Ġmachine": 3576,
      "Ġeight": 3577,
      "Ġformed": 3578,
      "ĠJuly": 3579,
      "oe": 3580,
      "Ġillust": 3581,
      "Ġhair": 3582,
      "Ġblue": 3583,
      "ĠDevelop": 3584,
      "oration": 3585,
      "Ġfollowed": 3586,
      "Pro": 3587,
      "wise": 3588,
      "Ġexcept": 3589,
      "unch": 3590,
      "AC": 3591,
      "Ġcitiz": 3592,
      "arian": 3593,
      "Ġdecades": 3594,
      "Ġtox": 3595,
      "uments": 3596,
      "Ġcateg": 3597,
      "Ġscale": 3598,
      "Ġeconomy": 3599,
      "Ġdecision": 3600,
      "Ġdisplay": 3601,
      "Ġappropriate": 3602,
      "ords": 3603,
      "Ġdeal": 3604,
      "Ġsymbol": 3605,
      "illing": 3606,
      "known": 3607,
      "iful": 3608,
      "Ġequipment": 3609,
      "Ġstories": 3610,
      "Ġsaw": 3611,
      "ding": 3612,
      "Ġlaws": 3613,
      "Ġchallenges": 3614,
      "ĠVal": 3615,
      "Ġhtt": 3616,
      "Ġstage": 3617,
      "Ġbone": 3618,
      "ĠChinese": 3619,
      "Ġfunctions": 3620,
      "Ġbreast": 3621,
      "Ġcorn": 3622,
      "orpor": 3623,
      "Ġnames": 3624,
      "Ġpowerful": 3625,
      "ĠVir": 3626,
      "ĠEnvironment": 3627,
      "rates": 3628,
      "Ġadj": 3629,
      "And": 3630,
      "ĠDNA": 3631,
      "Ġobt": 3632,
      "Ġcustom": 3633,
      "riculum": 3634,
      "Ġdied": 3635,
      "ellig": 3636,
      "Ġanything": 3637,
      "rops": 3638,
      "Ġroom": 3639,
      "22": 3640,
      "Ġacad": 3641,
      "ama": 3642,
      "mission": 3643,
      "ĠDuring": 3644,
      "Ġfindings": 3645,
      "Ġpicture": 3646,
      "Ġbasis": 3647,
      "house": 3648,
      "ĠRed": 3649,
      "Ġproviding": 3650,
      "Ġcities": 3651,
      "Ġdepend": 3652,
      "cember": 3653,
      "Ġproperties": 3654,
      "uff": 3655,
      "Ġremain": 3656,
      "Ġexpected": 3657,
      "ulated": 3658,
      "gin": 3659,
      "ests": 3660,
      "Ġestablish": 3661,
      "Ġtrying": 3662,
      "Ġjournal": 3663,
      "ĠRoman": 3664,
      "aur": 3665,
      "Ġdifferences": 3666,
      "ios": 3667,
      "Ġder": 3668,
      "Ġmuscle": 3669,
      "ĠHigh": 3670,
      "Ġpatterns": 3671,
      "ingu": 3672,
      "Ġreceived": 3673,
      "Ġmig": 3674,
      "vert": 3675,
      "Ġbeyond": 3676,
      "Here": 3677,
      "Ġvict": 3678,
      "Ġunc": 3679,
      "Ġelement": 3680,
      "ovember": 3681,
      "Ġ60": 3682,
      "Ġbenefit": 3683,
      "ĠDav": 3684,
      "rows": 3685,
      "ĠMy": 3686,
      "Ġcontroll": 3687,
      "Ġidentified": 3688,
      "Ġconstant": 3689,
      "Ġproperty": 3690,
      "Ġcomponents": 3691,
      "aste": 3692,
      "ste": 3693,
      "Ġconsequ": 3694,
      "Ġyourself": 3695,
      "Ġsurpr": 3696,
      "Ġconflic": 3697,
      "ĠCong": 3698,
      "atin": 3699,
      "Un": 3700,
      "ĠAre": 3701,
      "lin": 3702,
      "Ġefficient": 3703,
      "see": 3704,
      "time": 3705,
      "Ġdefined": 3706,
      "Ġsuccessful": 3707,
      "Ġfresh": 3708,
      "Ġcontinu": 3709,
      "back": 3710,
      "Ġvia": 3711,
      "ĠWashington": 3712,
      "Ġadvant": 3713,
      "Ġalcohol": 3714,
      "Ġhuge": 3715,
      "Ġspring": 3716,
      "Ġmodels": 3717,
      "Ġtherapy": 3718,
      "Ġadminist": 3719,
      "Ġdat": 3720,
      "Ġmoving": 3721,
      "aled": 3722,
      "oma": 3723,
      "Ġfert": 3724,
      "ologist": 3725,
      "Ġpoly": 3726,
      "Ġvision": 3727,
      "rehens": 3728,
      "ĠJanuary": 3729,
      "Ġenh": 3730,
      "que": 3731,
      "Ġmath": 3732,
      "ĠEven": 3733,
      "Ġexplain": 3734,
      "ĠSan": 3735,
      "ĠInternet": 3736,
      "uit": 3737,
      "Ġneigh": 3738,
      "Ġtechnologies": 3739,
      "Ġtou": 3740,
      "Ġgold": 3741,
      "AL": 3742,
      "rome": 3743,
      "Ġcompletely": 3744,
      "Ġreceive": 3745,
      "Ġmob": 3746,
      "Ġperfect": 3747,
      "Ġtemperatures": 3748,
      "Ġmaintain": 3749,
      "Be": 3750,
      "Why": 3751,
      "orial": 3752,
      "ĠUK": 3753,
      "ensity": 3754,
      "ocol": 3755,
      "Ġprivate": 3756,
      "ĠWilliam": 3757,
      "bl": 3758,
      "Ġmission": 3759,
      "Ġten": 3760,
      "They": 3761,
      "ospital": 3762,
      "Ġchanged": 3763,
      "Ġhomes": 3764,
      "Ġstrength": 3765,
      "ĠFeb": 3766,
      "Ġsequ": 3767,
      "Ġremember": 3768,
      "Ġshap": 3769,
      "ĠUse": 3770,
      "ĠPeople": 3771,
      "Ġfather": 3772,
      "era": 3773,
      "ĠEast": 3774,
      "ĠChildren": 3775,
      "ĠNow": 3776,
      "Ġtrade": 3777,
      "Ġinnov": 3778,
      "Ġreligious": 3779,
      "ĠSur": 3780,
      "Ġbox": 3781,
      "Ġoverall": 3782,
      "Ġeffort": 3783,
      "Ġson": 3784,
      "Ġpredict": 3785,
      "Ġglass": 3786,
      "yd": 3787,
      "Ġexhib": 3788,
      "Ġriver": 3789,
      "Ġfair": 3790,
      "Ġocean": 3791,
      "Ġunit": 3792,
      "Ġguid": 3793,
      "Ġfemale": 3794,
      "lick": 3795,
      "Ġincreases": 3796,
      "iant": 3797,
      "Ġplaced": 3798,
      "xiety": 3799,
      "Ġfamous": 3800,
      "related": 3801,
      "RE": 3802,
      "HE": 3803,
      "Ġdetect": 3804,
      "ĠSeptember": 3805,
      "Ġcry": 3806,
      "Ġwoman": 3807,
      "ought": 3808,
      "Ġmeasures": 3809,
      "Ġconsumption": 3810,
      "Ġoffers": 3811,
      "Ġhope": 3812,
      "rew": 3813,
      "ĠInst": 3814,
      "Ġwatch": 3815,
      "ara": 3816,
      "Ġsurvey": 3817,
      "Ġabsor": 3818,
      "Ġmajority": 3819,
      "Ġcausing": 3820,
      "Ġliqu": 3821,
      "Ġpurch": 3822,
      "odes": 3823,
      "uk": 3824,
      "Ġestimated": 3825,
      "ĠJesus": 3826,
      "Ġfear": 3827,
      "Ġstrugg": 3828,
      "fl": 3829,
      "nes": 3830,
      "Ġwon": 3831,
      "abilities": 3832,
      "Ġapproximately": 3833,
      "Ġalone": 3834,
      "Ġdegree": 3835,
      "Ġorganization": 3836,
      "ĠInc": 3837,
      "cious": 3838,
      "Ġmal": 3839,
      "rief": 3840,
      "Ġbelieved": 3841,
      "Ġmiss": 3842,
      "ĠBecause": 3843,
      "Ġroot": 3844,
      "ĠThen": 3845,
      "Ġwidely": 3846,
      "Ġnutrition": 3847,
      "Ġing": 3848,
      "Ġmilk": 3849,
      "Ġoxygen": 3850,
      "Ġchronic": 3851,
      "Ġmo": 3852,
      "ĠProgram": 3853,
      "ruary": 3854,
      "ographic": 3855,
      "Ġassist": 3856,
      "Ġassign": 3857,
      "ĠBlack": 3858,
      "Ġwrote": 3859,
      "Ġprofessor": 3860,
      "Ġregions": 3861,
      "pped": 3862,
      "Ġoccup": 3863,
      "lim": 3864,
      "Ad": 3865,
      "aint": 3866,
      "Ġdivid": 3867,
      "ST": 3868,
      "itable": 3869,
      "ĠChristian": 3870,
      "ĠSince": 3871,
      "Ġreports": 3872,
      "Ġvirt": 3873,
      "Ġcollabor": 3874,
      "ero": 3875,
      "Ġmetal": 3876,
      "Ġconstruct": 3877,
      "med": 3878,
      "Ġ2013": 3879,
      "Ġgames": 3880,
      "Ġlearned": 3881,
      "ifically": 3882,
      "eces": 3883,
      "60": 3884,
      "Ġresource": 3885,
      "ony": 3886,
      "Ġrelatively": 3887,
      "Ġearlier": 3888,
      "ologists": 3889,
      "orage": 3890,
      "Ġreleased": 3891,
      "atric": 3892,
      "itch": 3893,
      "Ġenter": 3894,
      "eal": 3895,
      "Ġcoming": 3896,
      "Ġrunning": 3897,
      "ĠCur": 3898,
      "ĠProt": 3899,
      "Ġund": 3900,
      "40": 3901,
      "Ġprofessional": 3902,
      "Ġversion": 3903,
      "gypt": 3904,
      "Ġlesson": 3905,
      "enty": 3906,
      "Ġord": 3907,
      "Ġinfections": 3908,
      "amic": 3909,
      "Ġdisorders": 3910,
      "cers": 3911,
      "Ġanti": 3912,
      "Ġbecoming": 3913,
      "Ġstructures": 3914,
      "Ġdepression": 3915,
      "Ġagree": 3916,
      "zz": 3917,
      "Ġopportunities": 3918,
      "Ġhon": 3919,
      "ses": 3920,
      "Ġseven": 3921,
      "ĠCommun": 3922,
      "Ġmember": 3923,
      "ĠNASA": 3924,
      "cont": 3925,
      "Ġstyle": 3926,
      "ype": 3927,
      "mitted": 3928,
      "ĠGovern": 3929,
      "Ġurban": 3930,
      "Ġdidn": 3931,
      "Ġapplied": 3932,
      "Ġexperiences": 3933,
      "Ġmedicine": 3934,
      "ira": 3935,
      "inated": 3936,
      "ĠTheir": 3937,
      "Ġcontext": 3938,
      "gery": 3939,
      "airs": 3940,
      "All": 3941,
      "ibly": 3942,
      "Ġrepl": 3943,
      "iable": 3944,
      "lege": 3945,
      "Ġgraph": 3946,
      "Ġmax": 3947,
      "Ġworked": 3948,
      "Ġshowed": 3949,
      "isl": 3950,
      "ĠOctober": 3951,
      "Ġcommand": 3952,
      "Ġplanning": 3953,
      "ogen": 3954,
      "ĠStudents": 3955,
      "ceed": 3956,
      "Ġitems": 3957,
      "Ġ2009": 3958,
      "Ġextremely": 3959,
      "Ġsuggests": 3960,
      "Ar": 3961,
      "urg": 3962,
      "Ġdistance": 3963,
      "Ġstream": 3964,
      "ĠDecember": 3965,
      "Ġdogs": 3966,
      "Ġindustrial": 3967,
      "ham": 3968,
      "orms": 3969,
      "Ġhappen": 3970,
      "Ġintroduced": 3971,
      "Ġhol": 3972,
      "ĠMod": 3973,
      "Ġbodies": 3974,
      "sec": 3975,
      "ondon": 3976,
      "Ġevolution": 3977,
      "Ġmention": 3978,
      "Ġpow": 3979,
      "Ġtask": 3980,
      "Ġstrategies": 3981,
      "Many": 3982,
      "Our": 3983,
      "Ġbuildings": 3984,
      "Ġantib": 3985,
      "21": 3986,
      "Ġsch": 3987,
      "Ġrecommend": 3988,
      "Ġreduced": 3989,
      "ida": 3990,
      "Ġappears": 3991,
      "Ġ+": 3992,
      "Ġacqu": 3993,
      "Ġvill": 3994,
      "Ġpollution": 3995,
      "Ġkid": 3996,
      "Ġgoals": 3997,
      "Ġking": 3998,
      "Ġ193": 3999,
      "Ġgiving": 4000,
      "ford": 4001,
      "DA": 4002,
      "Ġdangerous": 4003,
      "esc": 4004,
      "Ġhyp": 4005,
      "Ġdetails": 4006,
      "Ġexperts": 4007,
      "icip": 4008,
      "ĠOver": 4009,
      "chers": 4010,
      "Ġlegal": 4011,
      "ĠBi": 4012,
      "Ġconvers": 4013,
      "Ġsave": 4014,
      "Ġbran": 4015,
      "):": 4016,
      "men": 4017,
      "Ġvary": 4018,
      "ube": 4019,
      "bed": 4020,
      "orge": 4021,
      "Ġexpand": 4022,
      "Ġconducted": 4023,
      "Ġlung": 4024,
      "ĠMuseum": 4025,
      "ĠMc": 4026,
      "Ġiron": 4027,
      "Ġchance": 4028,
      "ĠBra": 4029,
      "Ġphilos": 4030,
      "Ġequal": 4031,
      "Ġexec": 4032,
      "Ġmathemat": 4033,
      "Ġlimit": 4034,
      "ĠTrans": 4035,
      "Ġfinal": 4036,
      "ĠBo": 4037,
      "Ġflood": 4038,
      "\".": 4039,
      "erate": 4040,
      "Ġdestro": 4041,
      "lor": 4042,
      "osystem": 4043,
      "ĠUN": 4044,
      "Ġbalance": 4045,
      "ux": 4046,
      "Ġseeds": 4047,
      "Ġleave": 4048,
      "ctors": 4049,
      "Ġrule": 4050,
      "Ġinjury": 4051,
      "Ġforces": 4052,
      "ament": 4053,
      "ken": 4054,
      "Ġgain": 4055,
      "After": 4056,
      "ĠNovember": 4057,
      "Ġnothing": 4058,
      "Ġfully": 4059,
      "Ġaffects": 4060,
      "Ġconcepts": 4061,
      "Ġfigure": 4062,
      "Ġlandsc": 4063,
      "Ġtele": 4064,
      "uild": 4065,
      "ev": 4066,
      "Ġexcess": 4067,
      "Ġ22": 4068,
      "ĠEgypt": 4069,
      "80": 4070,
      "Ġyellow": 4071,
      "Ġdri": 4072,
      "Ġbelief": 4073,
      "Ġeasier": 4074,
      "Ġeventually": 4075,
      "Ġasse": 4076,
      "che": 4077,
      "alt": 4078,
      "Ġvo": 4079,
      "ĠGermany": 4080,
      "Ġgeneration": 4081,
      "ĠSpanish": 4082,
      "Ġpi": 4083,
      "ĠChurch": 4084,
      "ares": 4085,
      "ĠCom": 4086,
      "Ġiniti": 4087,
      "Ġhappens": 4088,
      "aul": 4089,
      "Ġorganic": 4090,
      "Ġtum": 4091,
      "Ġspect": 4092,
      "ĠGreen": 4093,
      "off": 4094,
      "ĠPlan": 4095,
      "Ġreferred": 4096,
      "Ġhorm": 4097,
      "Ġstim": 4098,
      "Ġactions": 4099,
      "rael": 4100,
      "Ġisland": 4101,
      "Ph": 4102,
      "Ġfields": 4103,
      "Ġinstruct": 4104,
      "Ġexactly": 4105,
      "Ġtreated": 4106,
      "Ġrot": 4107,
      "ĠAlso": 4108,
      "Ġdescribe": 4109,
      "ĠFrance": 4110,
      "Ġfactor": 4111,
      "Ġutil": 4112,
      "Ġsect": 4113,
      "essel": 4114,
      "ĠSim": 4115,
      "Ġdegrees": 4116,
      "ĠProject": 4117,
      "Ġstatus": 4118,
      "ĠGreek": 4119,
      "Ġjud": 4120,
      "Ġhighest": 4121,
      "Ġgets": 4122,
      "Ġweak": 4123,
      "Ġpages": 4124,
      "Ġwalk": 4125,
      "Ġinvolves": 4126,
      "tes": 4127,
      "Ġengineering": 4128,
      "ocr": 4129,
      "Ġallowed": 4130,
      "Ġcommercial": 4131,
      "EM": 4132,
      "Ġcapacity": 4133,
      "Ġrepe": 4134,
      "ĠWestern": 4135,
      "ĠMedic": 4136,
      "Ġburn": 4137,
      "ulf": 4138,
      "Ġformer": 4139,
      "phas": 4140,
      "Ġpromot": 4141,
      "Ġtechnique": 4142,
      "Ġmoment": 4143,
      "cast": 4144,
      "Ġnovel": 4145,
      "Ġspeech": 4146,
      "ĠSociety": 4147,
      "Ġphen": 4148,
      "care": 4149,
      "Ġfrequently": 4150,
      "Ġnote": 4151,
      "ĠWeb": 4152,
      "Ġrelease": 4153,
      "Ġchallenge": 4154,
      "Ġaspects": 4155,
      "asks": 4156,
      "Ġconservation": 4157,
      "Ġgrade": 4158,
      "ĠUnion": 4159,
      "Ġconnected": 4160,
      "iring": 4161,
      "Ġchoice": 4162,
      "ĠFood": 4163,
      "Ġattract": 4164,
      "Ġstarting": 4165,
      "Ġcovered": 4166,
      "rest": 4167,
      "Ġmale": 4168,
      "Ġstore": 4169,
      "Ġmonit": 4170,
      "Ġload": 4171,
      "Ġemp": 4172,
      "edom": 4173,
      "anging": 4174,
      "igen": 4175,
      "âĢĿ,": 4176,
      "Ġvegetables": 4177,
      "Ġsquare": 4178,
      "ndrome": 4179,
      "omic": 4180,
      "Ġconstit": 4181,
      "antic": 4182,
      "Ġexisting": 4183,
      "Ġsand": 4184,
      "ĠLondon": 4185,
      "Ġfriend": 4186,
      "rab": 4187,
      "ĠMat": 4188,
      "ĠAss": 4189,
      "Ġflowers": 4190,
      "Ġradiation": 4191,
      "Ġpassed": 4192,
      "uses": 4193,
      "cular": 4194,
      "Ġbottom": 4195,
      "Ġbound": 4196,
      "ightly": 4197,
      "ĠHouse": 4198,
      "ĠAssociation": 4199,
      "Most": 4200,
      "Â°": 4201,
      "Ġchurch": 4202,
      "Is": 4203,
      "encies": 4204,
      "imens": 4205,
      "ĠCollege": 4206,
      "Ġvitamin": 4207,
      "Ġrat": 4208,
      "Ġheavy": 4209,
      "Ġrecords": 4210,
      "Ġpresence": 4211,
      "Ġbeautiful": 4212,
      "CO": 4213,
      "ĠPol": 4214,
      "Ġchemicals": 4215,
      "Ġlinked": 4216,
      "ĠMich": 4217,
      "Ġannual": 4218,
      "met": 4219,
      "Ġplans": 4220,
      "Ġatmosphere": 4221,
      "Ġcompar": 4222,
      "ĠMars": 4223,
      "itual": 4224,
      "ĠJust": 4225,
      "Ġchanging": 4226,
      "Ġtrig": 4227,
      "ĠSpace": 4228,
      "Ġnorthern": 4229,
      "Ġmostly": 4230,
      "Ġeggs": 4231,
      "Ġnotes": 4232,
      "Ġsoci": 4233,
      "Ġ80": 4234,
      "Ġradio": 4235,
      "Ġ23": 4236,
      "Ġexperiment": 4237,
      "Ġletter": 4238,
      "ĠGeneral": 4239,
      "Ġcitizens": 4240,
      "emy": 4241,
      "Ġcharacteristics": 4242,
      "Ġhousehold": 4243,
      "Ġinflamm": 4244,
      "Ġcycle": 4245,
      "Ġinvent": 4246,
      "Ġeffic": 4247,
      "Ġcollege": 4248,
      "aign": 4249,
      "more": 4250,
      "Ġdirection": 4251,
      "Ġvessel": 4252,
      "pective": 4253,
      "From": 4254,
      "enth": 4255,
      "ĠJapanese": 4256,
      "Ġpopulations": 4257,
      "Ġseparate": 4258,
      "ĠLaw": 4259,
      "Ġ2008": 4260,
      "Ġhear": 4261,
      "rupt": 4262,
      "Ġcomprehens": 4263,
      "ĠTex": 4264,
      "ormally": 4265,
      "Ġupper": 4266,
      "reet": 4267,
      "Ġanxiety": 4268,
      "Ġspot": 4269,
      "Ġwrong": 4270,
      "amental": 4271,
      "cip": 4272,
      "ĠAng": 4273,
      "Ġtransfer": 4274,
      "However": 4275,
      "Ġbegins": 4276,
      "Ġpresented": 4277,
      "ortunately": 4278,
      "ĠProfess": 4279,
      "Ġcomplic": 4280,
      "Ġdefinition": 4281,
      "Ġfilm": 4282,
      "Ġstorage": 4283,
      "ternal": 4284,
      "Ġlived": 4285,
      "hors": 4286,
      "ĠMary": 4287,
      "Ġlayer": 4288,
      "iday": 4289,
      "ognitive": 4290,
      "Ġtrack": 4291,
      "Ġboard": 4292,
      "ĠFebruary": 4293,
      "Ġoptions": 4294,
      "Sh": 4295,
      "Ġalg": 4296,
      "23": 4297,
      "omas": 4298,
      "Ġmuscles": 4299,
      "Ġelectrical": 4300,
      "ĠAut": 4301,
      "Ġcurriculum": 4302,
      "Ġgrass": 4303,
      "Ġforward": 4304,
      "Ġcopy": 4305,
      "bal": 4306,
      "roke": 4307,
      "Ġnuclear": 4308,
      "ĠWhy": 4309,
      "Ġbackground": 4310,
      "ris": 4311,
      "board": 4312,
      "Ġcand": 4313,
      "Ġapply": 4314,
      "Ġgave": 4315,
      "Ġdecisions": 4316,
      "Ġpul": 4317,
      "ĠIts": 4318,
      "Ġresistance": 4319,
      "Ġsignificantly": 4320,
      "Ġdistinct": 4321,
      "Ġdram": 4322,
      "Ġrisks": 4323,
      "Ġperhaps": 4324,
      "Ġbird": 4325,
      "asion": 4326,
      "pping": 4327,
      "Ġseed": 4328,
      "ĠLet": 4329,
      "Ġlooks": 4330,
      "ĠCour": 4331,
      "Ġdiscover": 4332,
      "Ġcombination": 4333,
      "order": 4334,
      "Ġsetting": 4335,
      "Ġsouthern": 4336,
      "AM": 4337,
      "Ġfinding": 4338,
      "opy": 4339,
      "ean": 4340,
      "ET": 4341,
      "Ġfoss": 4342,
      "Ġincome": 4343,
      "arge": 4344,
      "Ġremove": 4345,
      "works": 4346,
      "Ġreality": 4347,
      "ĠConf": 4348,
      "Ġlanguages": 4349,
      "ĠPublic": 4350,
      "Ġnumerous": 4351,
      "elines": 4352,
      "ĠIsrael": 4353,
      "ĠJewish": 4354,
      "Ġgender": 4355,
      "Ġthick": 4356,
      "Ġresulting": 4357,
      "isation": 4358,
      "Ġliterature": 4359,
      "Ġcore": 4360,
      "ĠDi": 4361,
      "Ġbed": 4362,
      "Ġprice": 4363,
      "Ġdyn": 4364,
      "Ġpartners": 4365,
      "Ġshall": 4366,
      "Ġdrive": 4367,
      "Ġdrinking": 4368,
      "ructure": 4369,
      "ĠCor": 4370,
      "ĠIsland": 4371,
      "ĠAsia": 4372,
      "ĠArch": 4373,
      "aid": 4374,
      "Ġmotor": 4375,
      "Ġ2015": 4376,
      "olved": 4377,
      "Ġrefers": 4378,
      "Ġcenturies": 4379,
      "Ġinstance": 4380,
      "key": 4381,
      "ĠST": 4382,
      "Ġvul": 4383,
      "Ġmag": 4384,
      "Ġparticipants": 4385,
      "ails": 4386,
      "ĠMic": 4387,
      "Ġworth": 4388,
      "Ġsexual": 4389,
      "ĠMexico": 4390,
      "Ġstaff": 4391,
      "Ġastron": 4392,
      "ĠInter": 4393,
      "ĠCoun": 4394,
      "cking": 4395,
      "Ġhimself": 4396,
      "ogle": 4397,
      "Ġmeat": 4398,
      "onds": 4399,
      "Ġawareness": 4400,
      "cipl": 4401,
      "ĠPhil": 4402,
      "Ġacademic": 4403,
      "Ġcarried": 4404,
      "PS": 4405,
      "ĠCongress": 4406,
      "Ġclasses": 4407,
      "Ġstars": 4408,
      "Ġhighlight": 4409,
      "EC": 4410,
      "Ġrecy": 4411,
      "Ġexposed": 4412,
      "ĠDevelopment": 4413,
      "Ġfavor": 4414,
      "ping": 4415,
      "Ġhearing": 4416,
      "tical": 4417,
      "rum": 4418,
      "Ġdivers": 4419,
      "Ġmoved": 4420,
      "Ġreducing": 4421,
      "Ġproperly": 4422,
      "Ġintellig": 4423,
      "Ġassessment": 4424,
      "ĠMount": 4425,
      "Ġinh": 4426,
      "Ġban": 4427,
      "Ġcoal": 4428,
      "Ġmel": 4429,
      "ĠLearning": 4430,
      "Ġ195": 4431,
      "Ġsustainable": 4432,
      "unction": 4433,
      "Ġkil": 4434,
      "Ġdatab": 4435,
      "Ġmainly": 4436,
      "ĠFin": 4437,
      "ĠFound": 4438,
      "Ġdie": 4439,
      "Ġheard": 4440,
      "Ġgene": 4441,
      "Ġecosystem": 4442,
      "Ġinform": 4443,
      "Ġreference": 4444,
      "Ġfacts": 4445,
      "ĠSun": 4446,
      "Ġjoint": 4447,
      "oxide": 4448,
      "Ġrequirements": 4449,
      "Ġdepending": 4450,
      "change": 4451,
      "ek": 4452,
      "Ġnerv": 4453,
      "Ġamounts": 4454,
      "ĠHIV": 4455,
      "Ġcontinued": 4456,
      "onic": 4457,
      "Ġpip": 4458,
      "Pl": 4459,
      "Ġhelping": 4460,
      "Ġsolid": 4461,
      "Ġwaters": 4462,
      "raw": 4463,
      "rations": 4464,
      "ald": 4465,
      "Although": 4466,
      "raction": 4467,
      "ressive": 4468,
      "Ġletters": 4469,
      "ophy": 4470,
      "resp": 4471,
      "Ġorganizations": 4472,
      "road": 4473,
      "Ġwin": 4474,
      "atically": 4475,
      "ĠOb": 4476,
      "Ġalternative": 4477,
      "ĠOrgan": 4478,
      "Im": 4479,
      "Ġnutrients": 4480,
      "acific": 4481,
      "iment": 4482,
      "force": 4483,
      "Ġwet": 4484,
      "Ġsounds": 4485,
      "Ġencourage": 4486,
      "Ġmut": 4487,
      "porary": 4488,
      "Ġactual": 4489,
      "Ġtour": 4490,
      "Ġadvanced": 4491,
      "Ġdiscussion": 4492,
      "ĠDec": 4493,
      "ager": 4494,
      "Ġtrend": 4495,
      "ĠUnder": 4496,
      "Ġ186": 4497,
      "Ġrecorded": 4498,
      ");": 4499,
      "Ġreprodu": 4500,
      "iders": 4501,
      "ĠTexas": 4502,
      "Ġanyone": 4503,
      "Ġemphas": 4504,
      "Ġtaught": 4505,
      "Ġoffice": 4506,
      "Ġvital": 4507,
      "Ġsong": 4508,
      "edic": 4509,
      "eties": 4510,
      "Ġemotional": 4511,
      "roph": 4512,
      "Ġtopics": 4513,
      "Ġprinciples": 4514,
      "Ġqual": 4515,
      "ĠCivil": 4516,
      "Ġfix": 4517,
      "New": 4518,
      "tered": 4519,
      "Ġ26": 4520,
      "Ġdeaths": 4521,
      "Ġserve": 4522,
      "Ġpeace": 4523,
      "Ġexplains": 4524,
      "Ġpieces": 4525,
      "Ġcreation": 4526,
      "ags": 4527,
      "Ġtrou": 4528,
      "ishing": 4529,
      "Ġsolutions": 4530,
      "ĠBr": 4531,
      "Ġtips": 4532,
      "wards": 4533,
      "Ġarticles": 4534,
      "ĠMa": 4535,
      "Ġspent": 4536,
      "Ġpromote": 4537,
      "mal": 4538,
      "zing": 4539,
      "Ġvaccine": 4540,
      "Ġallerg": 4541,
      "Ġdistribution": 4542,
      "Ġcontract": 4543,
      "Ġprepar": 4544,
      "ĠAir": 4545,
      "Ġfeeling": 4546,
      "Ġpal": 4547,
      "Ġvolume": 4548,
      "apers": 4549,
      "Ġpick": 4550,
      "ĠToday": 4551,
      "Ġtransform": 4552,
      "Ġ70": 4553,
      "ĠDon": 4554,
      "umn": 4555,
      "Ġlatest": 4556,
      "ĠDise": 4557,
      "Ġden": 4558,
      "Ġperformed": 4559,
      "Ġexperienced": 4560,
      "ĠChe": 4561,
      "ĠRef": 4562,
      "Ġages": 4563,
      "Ġleads": 4564,
      "Ġprofession": 4565,
      "www": 4566,
      "Ġconnection": 4567,
      "Ġwest": 4568,
      "Ġhit": 4569,
      "Ġpresident": 4570,
      "Ġprocessing": 4571,
      "rete": 4572,
      "Ġobserved": 4573,
      "Ġap": 4574,
      "RO": 4575,
      "Ġmessage": 4576,
      "AD": 4577,
      "Ġsnow": 4578,
      "Ġphysic": 4579,
      "\",": 4580,
      "Ġviolence": 4581,
      "itage": 4582,
      "ĠNet": 4583,
      "Ġsurgery": 4584,
      "Ġliquid": 4585,
      "Ġassum": 4586,
      "ĠSch": 4587,
      "Ġgirls": 4588,
      "Ġrenew": 4589,
      "standing": 4590,
      "Ġ90": 4591,
      "Ġ27": 4592,
      "ocal": 4593,
      "Ġround": 4594,
      "ĠClass": 4595,
      "Ġrelationships": 4596,
      "hetic": 4597,
      "Ġgenes": 4598,
      "Ġessay": 4599,
      "ta": 4600,
      "iverse": 4601,
      "Ġjour": 4602,
      "Ġ28": 4603,
      "ĠOnce": 4604,
      "earchers": 4605,
      "erved": 4606,
      "Ġclinical": 4607,
      "Ġimmediately": 4608,
      "ĠTest": 4609,
      "Ġcast": 4610,
      "Ġconsists": 4611,
      "Ab": 4612,
      "ĠJames": 4613,
      "Ġfine": 4614,
      "Ġinterested": 4615,
      "Ġhour": 4616,
      "ilit": 4617,
      "Ġhttp": 4618,
      "ped": 4619,
      "Ġhelped": 4620,
      "Ġparticles": 4621,
      "ession": 4622,
      "Ġincorpor": 4623,
      "Ġrecommended": 4624,
      "Ġagg": 4625,
      "Ġfamiliar": 4626,
      "ado": 4627,
      "II": 4628,
      "Ġheight": 4629,
      "Ġsynt": 4630,
      "Ġready": 4631,
      "urt": 4632,
      "ĠHuman": 4633,
      "Ġbattle": 4634,
      "anted": 4635,
      "ĠJournal": 4636,
      "Ġscen": 4637,
      "mark": 4638,
      "Ġ190": 4639,
      "24": 4640,
      "Ġclos": 4641,
      "That": 4642,
      "Ġ2016": 4643,
      "Ġrace": 4644,
      "clus": 4645,
      "Ġfruits": 4646,
      "Ġlinks": 4647,
      "Now": 4648,
      "irect": 4649,
      "Ġoperations": 4650,
      "Ġlessons": 4651,
      "Ġcrops": 4652,
      "Ġprimarily": 4653,
      "esity": 4654,
      "Ġinitial": 4655,
      "Ġstatement": 4656,
      "Ġimpacts": 4657,
      "Ġsample": 4658,
      "Ġfocused": 4659,
      "Ġhabitat": 4660,
      "astern": 4661,
      "Ġwanted": 4662,
      "Ġkm": 4663,
      "Cl": 4664,
      "Ġdental": 4665,
      "Ġinternal": 4666,
      "Ġdiscovery": 4667,
      "ĠTechnology": 4668,
      "isher": 4669,
      "Ġappe": 4670,
      "Ġoutput": 4671,
      "Ġblog": 4672,
      "Ġhom": 4673,
      "ĠEnergy": 4674,
      "ded": 4675,
      "Ġhaz": 4676,
      "aturally": 4677,
      "othes": 4678,
      "ias": 4679,
      "iance": 4680,
      "west": 4681,
      "Ġtrib": 4682,
      "ĠLatin": 4683,
      "Ġterrit": 4684,
      "Ġ2007": 4685,
      "Ġturned": 4686,
      "Ġsurrounding": 4687,
      "Ġstudied": 4688,
      "ball": 4689,
      "Ġinstall": 4690,
      "atform": 4691,
      "rog": 4692,
      "Ġforeign": 4693,
      "erences": 4694,
      "Ġupd": 4695,
      "Ġsav": 4696,
      "Ġsem": 4697,
      "Ġunivers": 4698,
      "Ġbright": 4699,
      "90": 4700,
      "ees": 4701,
      "SA": 4702,
      "anguage": 4703,
      "Ġsac": 4704,
      "Ġmanage": 4705,
      "Ġlegisl": 4706,
      "Ġpreviously": 4707,
      "ĠPal": 4708,
      "Ġmoon": 4709,
      "Ġeffectively": 4710,
      "Ġship": 4711,
      "des": 4712,
      "Ġyouth": 4713,
      "ĠSpe": 4714,
      "Ġpaint": 4715,
      "ounced": 4716,
      "Ġvulner": 4717,
      "Ġmulti": 4718,
      "Ġfarmers": 4719,
      "Ġvehicle": 4720,
      "ĠRepublic": 4721,
      "Ġhundreds": 4722,
      "Ġpractical": 4723,
      "Ġpret": 4724,
      "acters": 4725,
      "Ġserved": 4726,
      "Ġreaction": 4727,
      "Ġinput": 4728,
      "ĠFore": 4729,
      "Ġcontribute": 4730,
      "Ġauthors": 4731,
      "ĠGeorge": 4732,
      "Ġdestroy": 4733,
      "ĠBritain": 4734,
      "Ġpover": 4735,
      "Ġinfluen": 4736,
      "Ġwonder": 4737,
      "Ġaren": 4738,
      "Ġstraight": 4739,
      "Ġpoverty": 4740,
      "Ġther": 4741,
      "Ġmoist": 4742,
      "Ġoral": 4743,
      "Ġunits": 4744,
      "ĠSocial": 4745,
      "Ġdigest": 4746,
      "Ġarm": 4747,
      "Ġbuy": 4748,
      "Ġexcell": 4749,
      "Ġreplace": 4750,
      "Ġvast": 4751,
      "Ġesc": 4752,
      "icial": 4753,
      "ĠEvery": 4754,
      "Ġdecided": 4755,
      "Ġmillions": 4756,
      "Ġphenomen": 4757,
      "Ġcontrast": 4758,
      "mat": 4759,
      "Ġbelong": 4760,
      "Ġcomputers": 4761,
      "Americ": 4762,
      "crib": 4763,
      "Ġkilled": 4764,
      "iling": 4765,
      "ĠDavid": 4766,
      "ĠMedicine": 4767,
      "Ġkinds": 4768,
      "Ġvictim": 4769,
      "Ġstem": 4770,
      "Ġconver": 4771,
      "ĠMiss": 4772,
      "Ġfailure": 4773,
      "ĠPacific": 4774,
      "Ġgrown": 4775,
      "Ġmeeting": 4776,
      "Ġfing": 4777,
      "Ġshar": 4778,
      "do": 4779,
      "Ġcere": 4780,
      "ributed": 4781,
      "'ve": 4782,
      "Ġelimin": 4783,
      "ĠFlor": 4784,
      "Ġeast": 4785,
      "ĠBel": 4786,
      "Ġworldwide": 4787,
      "Ġign": 4788,
      "'ll": 4789,
      "70": 4790,
      "su": 4791,
      "Ġcredit": 4792,
      "Ġsatell": 4793,
      "ago": 4794,
      "Ġclim": 4795,
      "Ġ#": 4796,
      "ams": 4797,
      "Ġclick": 4798,
      "ĠPhys": 4799,
      "Ġtoxic": 4800,
      "ss": 4801,
      "ificial": 4802,
      "Ġcollected": 4803,
      "Ġconflict": 4804,
      "Ġthin": 4805,
      "Ġminor": 4806,
      "Ġagricultural": 4807,
      "ears": 4808,
      "ĠBas": 4809,
      "Ġrough": 4810,
      "Ġexpert": 4811,
      "ĠLake": 4812,
      "Ġindependent": 4813,
      "ception": 4814,
      "Ġkill": 4815,
      "Ġdivided": 4816,
      "Ġ2000": 4817,
      "Ġ2014": 4818,
      "Ġvolunt": 4819,
      "Ġtiny": 4820,
      "Ġbrief": 4821,
      "za": 4822,
      "Ġisol": 4823,
      "Ġroots": 4824,
      "olester": 4825,
      "arrow": 4826,
      "Ġ2017": 4827,
      "Ġinfected": 4828,
      "Ġdiagnosis": 4829,
      "Ġcampaign": 4830,
      "Ġinjuries": 4831,
      "Ġspend": 4832,
      "eline": 4833,
      "Ġnav": 4834,
      "Ġfaster": 4835,
      "Ġinches": 4836,
      "Ġthr": 4837,
      "ĠWind": 4838,
      "Ġplaying": 4839,
      "Ġincreasingly": 4840,
      "Ġremoved": 4841,
      "Ġconcern": 4842,
      "Ġtruth": 4843,
      "Ġinvolve": 4844,
      "ĠVirgin": 4845,
      "Ġconcerns": 4846,
      "Ġbrown": 4847,
      "akers": 4848,
      "Ġunf": 4849,
      "ĠRev": 4850,
      "Ġrul": 4851,
      "Ġfluid": 4852,
      "ĠCouncil": 4853,
      "Ġcolors": 4854,
      "teries": 4855,
      "acing": 4856,
      "ometimes": 4857,
      "Ġplease": 4858,
      "ĠAtl": 4859,
      "ressed": 4860,
      "Ġonto": 4861,
      "Ġharvest": 4862,
      "Stud": 4863,
      "ĠBay": 4864,
      "ĠOld": 4865,
      "Ġprepared": 4866,
      "olesterol": 4867,
      "ĠLa": 4868,
      "Ġtasks": 4869,
      "ĠRel": 4870,
      "ework": 4871,
      "Ġmanufacture": 4872,
      "Con": 4873,
      "EL": 4874,
      "Ġsituations": 4875,
      "Ġmist": 4876,
      "Ġprefer": 4877,
      "ĠHel": 4878,
      "Ġdrink": 4879,
      "Ġgum": 4880,
      "ifying": 4881,
      "osa": 4882,
      "Ġdefic": 4883,
      "Ġcharacters": 4884,
      "inate": 4885,
      "Ġliver": 4886,
      "Sp": 4887,
      "Ġdetermined": 4888,
      "ĠTur": 4889,
      "Ġbones": 4890,
      "Ġdro": 4891,
      "Ġpu": 4892,
      "Ġsmart": 4893,
      "Ġinternet": 4894,
      "Ġclearly": 4895,
      "Ġnotice": 4896,
      "Ġmorning": 4897,
      "Ġfiles": 4898,
      "Ġdiam": 4899,
      "Ġsalt": 4900,
      "Ġwealth": 4901,
      "Ġemergency": 4902,
      "Ġcontinues": 4903,
      "More": 4904,
      "ĠMor": 4905,
      "Ġallowing": 4906,
      "cientists": 4907,
      "Ġcareer": 4908,
      "Ġwildlife": 4909,
      "ault": 4910,
      "Ġimpl": 4911,
      "Ġaid": 4912,
      "isp": 4913,
      "wood": 4914,
      "umber": 4915,
      "eria": 4916,
      "opes": 4917,
      "ĠMal": 4918,
      "Ġpolicies": 4919,
      "ĠAcad": 4920,
      "ĠSea": 4921,
      "iveness": 4922,
      "Ġcardi": 4923,
      "ĠAD": 4924,
      "Ġmeant": 4925,
      "ropical": 4926,
      "Ġvisible": 4927,
      "Ġlooked": 4928,
      "pen": 4929,
      "mas": 4930,
      "Ġspecifically": 4931,
      "Ġmarine": 4932,
      "Ġflat": 4933,
      "Ġextensive": 4934,
      "Ġconsequences": 4935,
      "Ġinstruction": 4936,
      "ĠCentral": 4937,
      "ander": 4938,
      "Ġbiological": 4939,
      "Ġsort": 4940,
      "Ġnan": 4941,
      "Ġplayed": 4942,
      "Ġoperating": 4943,
      "Ġnit": 4944,
      "Ġjobs": 4945,
      "Ġshowing": 4946,
      "otic": 4947,
      "ĠBC": 4948,
      "Do": 4949,
      "rep": 4950,
      "ĠData": 4951,
      "ĠSub": 4952,
      "Ġefficiency": 4953,
      "Ġcolleag": 4954,
      "unk": 4955,
      "ĠTherefore": 4956,
      "Ġreligion": 4957,
      "Ġabuse": 4958,
      "ollow": 4959,
      "ĠService": 4960,
      "AP": 4961,
      "rant": 4962,
      "Ġintended": 4963,
      "iced": 4964,
      "rolog": 4965,
      "ĠStand": 4966,
      "Ġowners": 4967,
      "Ġfreedom": 4968,
      "Ġcognitive": 4969,
      "Ġattacks": 4970,
      "Ġfrequency": 4971,
      "ĠDem": 4972,
      "Ġple": 4973,
      "ĠMedical": 4974,
      "Ġwarming": 4975,
      "Ġshared": 4976,
      "cling": 4977,
      "ava": 4978,
      "Ġpurposes": 4979,
      "ĠHen": 4980,
      "Ġpregnancy": 4981,
      "Ġdriving": 4982,
      "kin": 4983,
      "Ġphone": 4984,
      "Ġtreatments": 4985,
      "ĠLou": 4986,
      "ĠProfessor": 4987,
      "Ġobvious": 4988,
      "Lear": 4989,
      "Ġadjust": 4990,
      "hma": 4991,
      "vision": 4992,
      "Ġdoll": 4993,
      "ĠPort": 4994,
      "Ġsignal": 4995,
      "Ġpotentially": 4996,
      "During": 4997,
      "Ġcomponent": 4998,
      "Ġmetab": 4999,
      "Ġrelevant": 5000,
      "ĠIS": 5001,
      "active": 5002,
      "Ġcounter": 5003,
      "Ġinstrument": 5004,
      "OS": 5005,
      "ctic": 5006,
      "Ġimproved": 5007,
      "Ġdoub": 5008,
      "Ġtraffic": 5009,
      "Us": 5010,
      "uration": 5011,
      "ĠSam": 5012,
      "Ġcook": 5013,
      "Ġcourt": 5014,
      "Ġcomfort": 5015,
      "Ġdetailed": 5016,
      "US": 5017,
      "Ġgod": 5018,
      "ĠCle": 5019,
      "ĠMark": 5020,
      "rich": 5021,
      "Ġbill": 5022,
      "Ġcombined": 5023,
      "Ġcoord": 5024,
      "Ġprocedure": 5025,
      "à¤": 5026,
      "Ġpictures": 5027,
      "Ġpig": 5028,
      "Ġdirector": 5029,
      "ĠSaf": 5030,
      "Ġsuffer": 5031,
      "Ġcrucial": 5032,
      "Ġagriculture": 5033,
      "Ġformation": 5034,
      "Ġsyndrome": 5035,
      "Ġhyper": 5036,
      "Ġcompleted": 5037,
      "Ġlargely": 5038,
      "ĠDist": 5039,
      "Ġformat": 5040,
      "anges": 5041,
      "ey": 5042,
      "ixt": 5043,
      "Ġresist": 5044,
      "Ġfertil": 5045,
      "Ġtypical": 5046,
      "Ġmamm": 5047,
      "Ġmaster": 5048,
      "gra": 5049,
      "mp": 5050,
      "ĠBook": 5051,
      "ĠPat": 5052,
      "Ġfundamental": 5053,
      "ij": 5054,
      "Ġwestern": 5055,
      "Ġperman": 5056,
      "Ġsubjects": 5057,
      "Ġregarding": 5058,
      "Ġgal": 5059,
      "lers": 5060,
      "ĠNews": 5061,
      "Ġconfirm": 5062,
      "erals": 5063,
      "oyal": 5064,
      "ĠControl": 5065,
      "ĠGoogle": 5066,
      "Dr": 5067,
      "Read": 5068,
      "Ġnaturally": 5069,
      "Ġmotion": 5070,
      "Ġ...": 5071,
      "och": 5072,
      "ĠDef": 5073,
      "Ġflex": 5074,
      "ION": 5075,
      "ĠCath": 5076,
      "Ġstarts": 5077,
      "Ġexpression": 5078,
      "Ġharmful": 5079,
      "Ġplatform": 5080,
      "rick": 5081,
      "Ġintroduction": 5082,
      "ING": 5083,
      "Ġfort": 5084,
      "Ġchildhood": 5085,
      "Ġgreatest": 5086,
      "Ġstret": 5087,
      "bing": 5088,
      "Ġmeasured": 5089,
      "cest": 5090,
      "Ġrapidly": 5091,
      "col": 5092,
      "OT": 5093,
      "inent": 5094,
      "ĠWhite": 5095,
      "ĠMiddle": 5096,
      "Ġsettle": 5097,
      "Ġlose": 5098,
      "acts": 5099,
      "Ġstone": 5100,
      "Ġstation": 5101,
      "Ġinflammation": 5102,
      "Ġvot": 5103,
      "going": 5104,
      "ĠEnvironmental": 5105,
      "ictionary": 5106,
      "ĠMart": 5107,
      "Ġglob": 5108,
      "comes": 5109,
      "resents": 5110,
      "ĠUsing": 5111,
      "Ġquar": 5112,
      "ascular": 5113,
      "van": 5114,
      "aks": 5115,
      "ĠOff": 5116,
      "Ġroll": 5117,
      "Ġslightly": 5118,
      "Ġsyn": 5119,
      "ĠEngine": 5120,
      "ĠQue": 5121,
      "down": 5122,
      "omach": 5123,
      "ĠExpl": 5124,
      "nic": 5125,
      "celer": 5126,
      "ĠHol": 5127,
      "Ġperiods": 5128,
      "long": 5129,
      "Ġhospital": 5130,
      "Ġcompl": 5131,
      "Ġresidents": 5132,
      "igenous": 5133,
      "roup": 5134,
      "Ġtechnical": 5135,
      "Ġbow": 5136,
      "osite": 5137,
      "iled": 5138,
      "which": 5139,
      "Ġvoice": 5140,
      "Ġvehicles": 5141,
      "Ġoption": 5142,
      "Ġrural": 5143,
      "Ġkeeping": 5144,
      "Ġaccurate": 5145,
      "cium": 5146,
      "ĠWild": 5147,
      "Ġkept": 5148,
      "Ġmotiv": 5149,
      "Ġforests": 5150,
      "Ġphr": 5151,
      "Ġtalking": 5152,
      "BC": 5153,
      "Ġwalls": 5154,
      "abits": 5155,
      "ĠCarol": 5156,
      "Ġwire": 5157,
      "Ġdouble": 5158,
      "Ġinsects": 5159,
      "Ġraised": 5160,
      "Ġbud": 5161,
      "rier": 5162,
      "Ġproteins": 5163,
      "Ġlandscape": 5164,
      "uls": 5165,
      "Ġoperation": 5166,
      "Ġoriginally": 5167,
      "ipped": 5168,
      "ĠColumb": 5169,
      "Ġcars": 5170,
      "Ġgrand": 5171,
      "Ġindicate": 5172,
      "stitution": 5173,
      "ĠFlorida": 5174,
      "Ġdescribes": 5175,
      "ĠRem": 5176,
      "Ġthoughts": 5177,
      "Ġsubstance": 5178,
      "Ġleaf": 5179,
      "Ġtested": 5180,
      "CS": 5181,
      "ria": 5182,
      "oke": 5183,
      "Ġbank": 5184,
      "Ġadvantage": 5185,
      "Ġopin": 5186,
      "uted": 5187,
      "ĠElect": 5188,
      "eters": 5189,
      "Ġidentity": 5190,
      "udden": 5191,
      "ĠGovernment": 5192,
      "fall": 5193,
      "ĠLibrary": 5194,
      "bi": 5195,
      "Ġsky": 5196,
      "Ġvalu": 5197,
      "Ġmobile": 5198,
      "TS": 5199,
      "Ġfeelings": 5200,
      "Ġperspective": 5201,
      "rastructure": 5202,
      "abul": 5203,
      "Ġemail": 5204,
      "inn": 5205,
      "Ġsamples": 5206,
      "Ġleader": 5207,
      "aker": 5208,
      "Ġfif": 5209,
      "with": 5210,
      "Ġelectronic": 5211,
      "Ġinterpret": 5212,
      "Ġcircum": 5213,
      "vis": 5214,
      "Ġrepresents": 5215,
      "Ġcloth": 5216,
      "Ġfossil": 5217,
      "Ġexplan": 5218,
      "asive": 5219,
      "Ġnormally": 5220,
      "urance": 5221,
      "Ġtrust": 5222,
      "cript": 5223,
      "Ġexplained": 5224,
      "being": 5225,
      "ĠMass": 5226,
      "Ġexcellent": 5227,
      "Ġlaun": 5228,
      "tion": 5229,
      "Ġnoted": 5230,
      "ĠRich": 5231,
      "Ġdownload": 5232,
      "Ġmassive": 5233,
      "Ġsaying": 5234,
      "umin": 5235,
      "Ġkn": 5236,
      "ĠIr": 5237,
      "riage": 5238,
      "Ġstrategy": 5239,
      "Ġideal": 5240,
      "ĠSum": 5241,
      "Ġsecret": 5242,
      "Ġcholesterol": 5243,
      "ĠLife": 5244,
      "ĠRober": 5245,
      "Ġdiverse": 5246,
      "ĠAv": 5247,
      "ĠThus": 5248,
      "Ġprotected": 5249,
      "Ġstudying": 5250,
      "ya": 5251,
      "vironments": 5252,
      "rence": 5253,
      "No": 5254,
      "ĠAbout": 5255,
      "Ġspl": 5256,
      "Ġmyth": 5257,
      "iest": 5258,
      "ĠBen": 5259,
      "ĠKnow": 5260,
      "Ġod": 5261,
      "Ġreb": 5262,
      "ĠOut": 5263,
      "Ġphase": 5264,
      "gl": 5265,
      "Ġfinally": 5266,
      "Ġble": 5267,
      "Ġwaves": 5268,
      "kes": 5269,
      "Ġhunt": 5270,
      "Ġchapter": 5271,
      "Ind": 5272,
      "rating": 5273,
      "ishes": 5274,
      "Ġcharge": 5275,
      "Ġrecognized": 5276,
      "Ġdepth": 5277,
      "Ġdiversity": 5278,
      "itz": 5279,
      "Ġclosely": 5280,
      "Ġdatabase": 5281,
      "ĠInformation": 5282,
      "HO": 5283,
      "Ġsuffering": 5284,
      "ĠMake": 5285,
      "Ġproposed": 5286,
      "Ġju": 5287,
      "Ġreached": 5288,
      "Ġlov": 5289,
      "Ġsend": 5290,
      "ulin": 5291,
      "Ġ2006": 5292,
      "Ġelev": 5293,
      "Ġpump": 5294,
      "Ġmuseum": 5295,
      "isis": 5296,
      "Ġrevolution": 5297,
      "icks": 5298,
      "tee": 5299,
      "Ġsen": 5300,
      "Ġfaith": 5301,
      "gal": 5302,
      "Ġgoods": 5303,
      "Ġforced": 5304,
      "Ġcreative": 5305,
      "Ġgreenhouse": 5306,
      "imer": 5307,
      "Ġcontaining": 5308,
      "Ġprepare": 5309,
      "Se": 5310,
      "ĠJer": 5311,
      "ĠVol": 5312,
      "Ġ35": 5313,
      "Ġmanufacturing": 5314,
      "Te": 5315,
      "Ġmountain": 5316,
      "Ġtail": 5317,
      "Ġwel": 5318,
      "Ġsets": 5319,
      "ĠBible": 5320,
      "ĠDisease": 5321,
      "Ġconvent": 5322,
      "Ġingred": 5323,
      "well": 5324,
      "Ġdent": 5325,
      "Ġdiagnosed": 5326,
      "ĠTwo": 5327,
      "First": 5328,
      "Ġobesity": 5329,
      "Ġanswers": 5330,
      "faces": 5331,
      "Ġcreates": 5332,
      "Ġâ": 5333,
      "Ġpun": 5334,
      "Ġchart": 5335,
      "Ġreduction": 5336,
      "ĠNature": 5337,
      "Ġgovernments": 5338,
      "Ġneut": 5339,
      "ĠLord": 5340,
      "Ġshel": 5341,
      "Ġdepends": 5342,
      "28": 5343,
      "26": 5344,
      "Ġimmig": 5345,
      "Ġmort": 5346,
      "Ġdoctors": 5347,
      "ĠAN": 5348,
      "Ġfollows": 5349,
      "ĠCommon": 5350,
      "aughter": 5351,
      "Ġdespite": 5352,
      "Ġapproaches": 5353,
      "ffee": 5354,
      "Ġoccurred": 5355,
      "Ġdomestic": 5356,
      "alle": 5357,
      "Ġ29": 5358,
      "DC": 5359,
      "Ġsurvive": 5360,
      "Ġtitle": 5361,
      "ĠMac": 5362,
      "Ġseek": 5363,
      "ĠPaul": 5364,
      "ĠWomen": 5365,
      "Ġlib": 5366,
      "Ġinstitutions": 5367,
      "ĠMet": 5368,
      "Ġappearance": 5369,
      "Ġ>": 5370,
      "yth": 5371,
      "Ġdiss": 5372,
      "ota": 5373,
      "cules": 5374,
      "istan": 5375,
      "Ġcrop": 5376,
      "amily": 5377,
      "Ġpretty": 5378,
      "Ġlibrary": 5379,
      "Ġrub": 5380,
      "Ġaqu": 5381,
      "ĠBoth": 5382,
      "Ġflight": 5383,
      "Ġcrisis": 5384,
      "Ġera": 5385,
      "Ġmanner": 5386,
      "ĠFoundation": 5387,
      "Ġgenerate": 5388,
      "Ġseg": 5389,
      "vin": 5390,
      "oric": 5391,
      "Ġtraum": 5392,
      "berg": 5393,
      "Ġcolour": 5394,
      "Ġsed": 5395,
      "ĠSen": 5396,
      "Ġcouple": 5397,
      "Ġdecade": 5398,
      "roid": 5399,
      "Ġpark": 5400,
      "azing": 5401,
      "rosc": 5402,
      "Ġboost": 5403,
      "omin": 5404,
      "Ġdust": 5405,
      "Ġportion": 5406,
      "Ġstomach": 5407,
      "Ġraise": 5408,
      "Ġoffered": 5409,
      "Ġgar": 5410,
      "Ġrail": 5411,
      "Ġproduces": 5412,
      "ĠThomas": 5413,
      "Ġtrain": 5414,
      "reci": 5415,
      "Ġvent": 5416,
      "Ġ189": 5417,
      "Ġhappened": 5418,
      "stood": 5419,
      "Ġproducing": 5420,
      "Ġsick": 5421,
      "normal": 5422,
      "Ġnations": 5423,
      "ĠPost": 5424,
      "enses": 5425,
      "Ġexternal": 5426,
      "Ġnerve": 5427,
      "RI": 5428,
      "Ġdistingu": 5429,
      "Bl": 5430,
      "ĠLand": 5431,
      "ĠSee": 5432,
      "Ġhorse": 5433,
      "Ġsector": 5434,
      "Ġenvironments": 5435,
      "Ġreaders": 5436,
      "Ġancest": 5437,
      "ĠBudd": 5438,
      "comp": 5439,
      "Ġlifest": 5440,
      "ĠMont": 5441,
      "osen": 5442,
      "Ġsolve": 5443,
      "27": 5444,
      "Ġstages": 5445,
      "Ġlic": 5446,
      "ĠArab": 5447,
      "Ġneu": 5448,
      "Ġ2020": 5449,
      "Ġcomprehensive": 5450,
      "abric": 5451,
      "ensus": 5452,
      "aser": 5453,
      "Ġteen": 5454,
      "Ġprogramming": 5455,
      "ĠDisc": 5456,
      "Ġmonitoring": 5457,
      "Ġprevention": 5458,
      "Ġstored": 5459,
      "ĠPower": 5460,
      "what": 5461,
      "Ġstroke": 5462,
      "ĠNor": 5463,
      "Ġlik": 5464,
      "Ġcorresp": 5465,
      "olars": 5466,
      "ĠOcean": 5467,
      "Ġsides": 5468,
      "Ġ2005": 5469,
      "Ġwear": 5470,
      "rust": 5471,
      "gans": 5472,
      "Ġmaximum": 5473,
      "Ġgall": 5474,
      "stream": 5475,
      "Ġparty": 5476,
      "Ġnarrow": 5477,
      "Ġhelpful": 5478,
      "Ġnor": 5479,
      "Cont": 5480,
      "oom": 5481,
      "ĠTr": 5482,
      "Ġfloor": 5483,
      "Ġadding": 5484,
      "29": 5485,
      "Ġtouch": 5486,
      "ĠNations": 5487,
      "Ġdeliver": 5488,
      "ndom": 5489,
      "Ġotherwise": 5490,
      "Ġcolleagues": 5491,
      "ĠMil": 5492,
      "Ġremote": 5493,
      "ancing": 5494,
      "Ġmer": 5495,
      "ona": 5496,
      "Ġsports": 5497,
      "ossible": 5498,
      "Ġadvance": 5499,
      "nel": 5500,
      "ĠSer": 5501,
      "Ġbrother": 5502,
      "Ġdioxide": 5503,
      "Ġmovements": 5504,
      "Ġrecognize": 5505,
      "state": 5506,
      "Ġshell": 5507,
      "Ġregularly": 5508,
      "Ġplays": 5509,
      "iate": 5510,
      "Ġofficials": 5511,
      "ĠKore": 5512,
      "ael": 5513,
      "Ġpros": 5514,
      "Ġbusinesses": 5515,
      "ĠDesign": 5516,
      "Ġsupported": 5517,
      "ĠVirginia": 5518,
      "Ġvaluable": 5519,
      "ĠSecond": 5520,
      "field": 5521,
      "Ġcontrolled": 5522,
      "ario": 5523,
      "ras": 5524,
      "pal": 5525,
      "Ġtun": 5526,
      "Ġpil": 5527,
      "Ġtall": 5528,
      "rian": 5529,
      "ĠEmp": 5530,
      "Ġenhance": 5531,
      "inating": 5532,
      "Pe": 5533,
      "Ġphotograph": 5534,
      "igation": 5535,
      "Since": 5536,
      "Ġvoc": 5537,
      "pre": 5538,
      "Ġwhom": 5539,
      "Ġcapable": 5540,
      "Ġfly": 5541,
      "oper": 5542,
      "Ġantibiot": 5543,
      "ibl": 5544,
      "Ġcloud": 5545,
      "De": 5546,
      "Ġstorm": 5547,
      "Ġcalories": 5548,
      "Ġlots": 5549,
      "ĠColor": 5550,
      "CC": 5551,
      "Ġdrop": 5552,
      "Ġmentioned": 5553,
      "flow": 5554,
      "ville": 5555,
      "Ġfle": 5556,
      "ĠWell": 5557,
      "lam": 5558,
      "Ġleaving": 5559,
      "Ġsusp": 5560,
      "ĠPress": 5561,
      "cel": 5562,
      "oto": 5563,
      "born": 5564,
      "Ġfacilities": 5565,
      "Ġextent": 5566,
      "Ġdocuments": 5567,
      "ompl": 5568,
      "win": 5569,
      "ĠJews": 5570,
      "Ġrevealed": 5571,
      "free": 5572,
      "Ġfill": 5573,
      "attle": 5574,
      "ache": 5575,
      "ĠSal": 5576,
      "Int": 5577,
      "inding": 5578,
      "Today": 5579,
      "mic": 5580,
      "ample": 5581,
      "Ġcert": 5582,
      "ĠRights": 5583,
      "?âĢĿ": 5584,
      "ĠUp": 5585,
      "Ġdecline": 5586,
      "word": 5587,
      "Ġinfrastructure": 5588,
      "Ġeveryday": 5589,
      "Ġcatch": 5590,
      "ritis": 5591,
      "Ġmedium": 5592,
      "Ġsurvival": 5593,
      "500": 5594,
      "Gen": 5595,
      "Ġcompr": 5596,
      "Ġconcerned": 5597,
      "ĠMem": 5598,
      "Ġbehaviour": 5599,
      "athy": 5600,
      "Ġextract": 5601,
      "Ġgrav": 5602,
      "Ġdial": 5603,
      "Ġpup": 5604,
      "Ġpush": 5605,
      "Ġapart": 5606,
      "DF": 5607,
      "utive": 5608,
      "Ġselected": 5609,
      "Ġcm": 5610,
      "Ġbot": 5611,
      "uke": 5612,
      "ĠLouis": 5613,
      "ĠLabor": 5614,
      "Ġprices": 5615,
      "ĠTHE": 5616,
      "Ġcats": 5617,
      "Ġfrag": 5618,
      "Ġhabits": 5619,
      "Ġfoundation": 5620,
      "ĠInstead": 5621,
      "LE": 5622,
      "ye": 5623,
      "Ġcontem": 5624,
      "abulary": 5625,
      "ĠSci": 5626,
      "En": 5627,
      "âĢĻ.": 5628,
      "Ġmedications": 5629,
      "Ġ188": 5630,
      "ada": 5631,
      "Ġdrawing": 5632,
      "Ġtwice": 5633,
      "Ġpresentation": 5634,
      "Ġexistence": 5635,
      "Ġbattery": 5636,
      "pan": 5637,
      "ĠLike": 5638,
      "Ġsentence": 5639,
      "Ġdin": 5640,
      "Ġrandom": 5641,
      "Ġcultiv": 5642,
      "Ġconclud": 5643,
      "Ġroutine": 5644,
      "Ġplate": 5645,
      "ĠCharles": 5646,
      "Ġimmun": 5647,
      "Ġmolecules": 5648,
      "riting": 5649,
      "35": 5650,
      "Re": 5651,
      "rie": 5652,
      "Ġspeaking": 5653,
      "den": 5654,
      "Ġflav": 5655,
      "ulating": 5656,
      "agers": 5657,
      "Ġcovers": 5658,
      "uilding": 5659,
      "hop": 5660,
      "Ġmild": 5661,
      "ĠTem": 5662,
      "Ġdisapp": 5663,
      "ĠCanadian": 5664,
      "Ġcommunicate": 5665,
      "Ġacids": 5666,
      "Ġelectron": 5667,
      "orith": 5668,
      "Ġtrad": 5669,
      "Ġedge": 5670,
      "car": 5671,
      "Ġresponsibility": 5672,
      "ĠFranc": 5673,
      "Ġsweet": 5674,
      "ifies": 5675,
      "Ġaccomp": 5676,
      "ĠThrough": 5677,
      "weight": 5678,
      "Ġimproving": 5679,
      "Ġinterview": 5680,
      "Ġadvice": 5681,
      "Ġguidelines": 5682,
      "ĠTreat": 5683,
      "ĠSl": 5684,
      "fish": 5685,
      "Ġchoices": 5686,
      "Ġpoet": 5687,
      "ĠEv": 5688,
      "Ġcertainly": 5689,
      "Ġwave": 5690,
      "Ġtells": 5691,
      "Ġoutcomes": 5692,
      "Ġminimum": 5693,
      "Ġcontamin": 5694,
      "asure": 5695,
      "organ": 5696,
      "Ġ300": 5697,
      "exp": 5698,
      "See": 5699,
      "Ġwit": 5700,
      "Ġnurs": 5701,
      "Ġprocedures": 5702,
      "Ġskill": 5703,
      "Ġcourses": 5704,
      "Ġfiber": 5705,
      "Ġacceler": 5706,
      "ĠFre": 5707,
      "Ġfigures": 5708,
      "Ġaccompl": 5709,
      "idden": 5710,
      "leg": 5711,
      "ĠOF": 5712,
      "Ġfu": 5713,
      "Ġworse": 5714,
      "Ġintelligence": 5715,
      "Ġ2018": 5716,
      "Ġfelt": 5717,
      "Ġexpensive": 5718,
      "Ġchain": 5719,
      "ĠArmy": 5720,
      "ari": 5721,
      "Ġcultures": 5722,
      "ĠCommission": 5723,
      "Ġbreathing": 5724,
      "ĠDel": 5725,
      "Ġsignals": 5726,
      "hips": 5727,
      "ĠWork": 5728,
      "Ġsensitive": 5729,
      "inations": 5730,
      "Ġwalking": 5731,
      "ĠCy": 5732,
      "Ġexperiments": 5733,
      "Ġath": 5734,
      "Ġband": 5735,
      "Ġneck": 5736,
      "Ġuns": 5737,
      "Ġbiggest": 5738,
      "Ġdecrease": 5739,
      "Ġvillage": 5740,
      "CT": 5741,
      "MS": 5742,
      "Ġsufficient": 5743,
      "ĠManagement": 5744,
      "Ġconcentration": 5745,
      "Ġvessels": 5746,
      "ĠCourt": 5747,
      "dent": 5748,
      "Ġtal": 5749,
      "Ġcart": 5750,
      "aj": 5751,
      "aped": 5752,
      "Ġhouses": 5753,
      "Ġjourney": 5754,
      "Ġaer": 5755,
      "ĠBer": 5756,
      "eck": 5757,
      "amil": 5758,
      "ny": 5759,
      "Ġdrain": 5760,
      "olve": 5761,
      "Ġsche": 5762,
      "ĠHenry": 5763,
      "heast": 5764,
      "Ġlegs": 5765,
      "Ġslowly": 5766,
      "Ġdiscussed": 5767,
      "Ġbabies": 5768,
      "Every": 5769,
      "Can": 5770,
      "Ġuniverse": 5771,
      "Ġhydrogen": 5772,
      "Ġlisted": 5773,
      "Ġrespir": 5774,
      "Let": 5775,
      "using": 5776,
      "ĠLanguage": 5777,
      "mary": 5778,
      "Ġtow": 5779,
      "Ġcomment": 5780,
      "Ġgenerated": 5781,
      "Ġneighb": 5782,
      "pes": 5783,
      "Ġsudden": 5784,
      "alian": 5785,
      "hemical": 5786,
      "Ġbio": 5787,
      "Ġstands": 5788,
      "Ġappeared": 5789,
      "Ġ1990": 5790,
      "oul": 5791,
      "Ġproport": 5792,
      "Ġarchitecture": 5793,
      "Ġorganisms": 5794,
      "Ġfilled": 5795,
      "Ġ2019": 5796,
      "Ġdiscrim": 5797,
      "Ġabund": 5798,
      "Ġprofessionals": 5799,
      "roduction": 5800,
      "cription": 5801,
      "Ġorgans": 5802,
      "ĠFe": 5803,
      "Ġkit": 5804,
      "75": 5805,
      "Ġremained": 5806,
      "Ġwindow": 5807,
      "Ġintake": 5808,
      "Ġcoffee": 5809,
      "ĠÃ": 5810,
      "Ġpull": 5811,
      "Ġincl": 5812,
      "Ġmachines": 5813,
      "Ġnetworks": 5814,
      "olute": 5815,
      "ĠSk": 5816,
      "Ġfasc": 5817,
      "Ġcalcium": 5818,
      "fortunately": 5819,
      "hi": 5820,
      "zy": 5821,
      "ĠStudies": 5822,
      "Ġaudience": 5823,
      "Ġprecise": 5824,
      "ĠVict": 5825,
      "Ġsuggested": 5826,
      "Ġunknown": 5827,
      "Ġartificial": 5828,
      "rowing": 5829,
      "name": 5830,
      "45": 5831,
      "Ġpreval": 5832,
      "Your": 5833,
      "rid": 5834,
      "irds": 5835,
      "ĠGet": 5836,
      "Ġengage": 5837,
      "ypes": 5838,
      "wo": 5839,
      "ato": 5840,
      "Ġunus": 5841,
      "Ġmagnetic": 5842,
      "UN": 5843,
      "Ġformal": 5844,
      "Ġsecondary": 5845,
      "ads": 5846,
      "Ġdiscipl": 5847,
      "Ġkilomet": 5848,
      "Ġvolunte": 5849,
      "Ġfirm": 5850,
      "American": 5851,
      "itors": 5852,
      "allow": 5853,
      "clusion": 5854,
      "ĠIll": 5855,
      "Ġbutter": 5856,
      "ĠClimate": 5857,
      "eper": 5858,
      "ĠTer": 5859,
      "ĠSouthern": 5860,
      "ĠHaw": 5861,
      "ĠAustralian": 5862,
      "Ġderived": 5863,
      "UR": 5864,
      "Ġsod": 5865,
      "alysis": 5866,
      "Ġchief": 5867,
      "Ġrivers": 5868,
      "ĠLab": 5869,
      "ĠCam": 5870,
      "Ġcarb": 5871,
      "fe": 5872,
      "Ġlabel": 5873,
      "Ġfabric": 5874,
      "Ġ500": 5875,
      "Ġtried": 5876,
      "Ġcards": 5877,
      "Ġgather": 5878,
      "Ġhealthcare": 5879,
      "Ġdedic": 5880,
      "Ġmonitor": 5881,
      "Ġassemb": 5882,
      "Ġcalls": 5883,
      "Ġyounger": 5884,
      "Ġsmoke": 5885,
      "idity": 5886,
      "Ġframework": 5887,
      "Ġdistrict": 5888,
      "that": 5889,
      "Ġdream": 5890,
      "Ġflo": 5891,
      "Ġrenewable": 5892,
      "Ġdu": 5893,
      "Ġsuccessfully": 5894,
      "ĠNorthern": 5895,
      "Ġemotions": 5896,
      "sts": 5897,
      "Ġindex": 5898,
      "ĠGlobal": 5899,
      "elesc": 5900,
      "Ġeastern": 5901,
      "Ġvolcan": 5902,
      "ĠCatholic": 5903,
      "hist": 5904,
      "Ġmeters": 5905,
      "Not": 5906,
      "Ġraw": 5907,
      "ÃŃ": 5908,
      "thritis": 5909,
      "Ġlands": 5910,
      "Ġsan": 5911,
      "Ġbroken": 5912,
      "Ġlaboratory": 5913,
      "rants": 5914,
      "Ġwid": 5915,
      "Over": 5916,
      "ĠCancer": 5917,
      "ĠAp": 5918,
      "ĠJose": 5919,
      "Ġrising": 5920,
      "Ġcamera": 5921,
      "ĠBet": 5922,
      "Ġsteel": 5923,
      "Ġtissues": 5924,
      "tenance": 5925,
      "Ġtransportation": 5926,
      "Ġsuitable": 5927,
      "Ġsubstant": 5928,
      "Ġphysics": 5929,
      "Ġaccounts": 5930,
      "aria": 5931,
      "100": 5932,
      "lets": 5933,
      "Ġdepos": 5934,
      "Ġcoastal": 5935,
      "Ġopened": 5936,
      "Ġasthma": 5937,
      "bra": 5938,
      "ĠNative": 5939,
      "Ġimplic": 5940,
      "Ġapparent": 5941,
      "ĠâĢ¦": 5942,
      "ester": 5943,
      "Ġsight": 5944,
      "Ġadopted": 5945,
      "Ġgalax": 5946,
      "Ã¡": 5947,
      "Ġknew": 5948,
      "Ġbehaviors": 5949,
      "ĠRussia": 5950,
      "inet": 5951,
      "Ġnine": 5952,
      "Ġsubstances": 5953,
      "Ġwants": 5954,
      "Ġturns": 5955,
      "igure": 5956,
      "Ġgrew": 5957,
      "ii": 5958,
      "ĠRobert": 5959,
      "Ġsupplies": 5960,
      "ĠRussian": 5961,
      "ML": 5962,
      "Ġoutl": 5963,
      "ĠSol": 5964,
      "Ġconsumers": 5965,
      "ĠFederal": 5966,
      "Ġalgorith": 5967,
      "Ġlocations": 5968,
      "indu": 5969,
      "Ġalt": 5970,
      "Ġstick": 5971,
      "Ġaw": 5972,
      "Ġconsult": 5973,
      "Ġshapes": 5974,
      "Ġequival": 5975,
      "ashion": 5976,
      "ibilities": 5977,
      "Ġfacilit": 5978,
      "Ġsimpl": 5979,
      "Ġsoldiers": 5980,
      "Ġran": 5981,
      "Ġprem": 5982,
      "Ġrecovery": 5983,
      "ĠValley": 5984,
      "band": 5985,
      "ĠWik": 5986,
      "Ġstring": 5987,
      "Ġenable": 5988,
      "Ġ45": 5989,
      "Ġstruggle": 5990,
      "ĠNatural": 5991,
      "Ġsecure": 5992,
      "opl": 5993,
      "ommon": 5994,
      "Ġopening": 5995,
      "Ġchann": 5996,
      "stone": 5997,
      "Ġminim": 5998,
      "Ġnarr": 5999,
      "abil": 6000,
      "ditionally": 6001,
      "Ġcloser": 6002,
      "Ġpermanent": 6003,
      "ĠGood": 6004,
      "Ġfever": 6005,
      "Ġdifficulty": 6006,
      "from": 6007,
      "liest": 6008,
      "heimer": 6009,
      "Ġcos": 6010,
      "Ġadvoc": 6011,
      "ĠSte": 6012,
      "Ġbeneficial": 6013,
      "Ġunderstood": 6014,
      "Ġfounded": 6015,
      "ĠEconom": 6016,
      "Ġ185": 6017,
      "Ġcutting": 6018,
      "Other": 6019,
      "burg": 6020,
      "ca": 6021,
      "ctive": 6022,
      "ĠIN": 6023,
      "wing": 6024,
      "Ġremind": 6025,
      "ellect": 6026,
      "Ġepid": 6027,
      "tage": 6028,
      "Ġmaps": 6029,
      "Ġcompounds": 6030,
      "hether": 6031,
      "Ġarmy": 6032,
      "erent": 6033,
      "Ġlifestyle": 6034,
      "Ġcomposition": 6035,
      "Ġpron": 6036,
      "itan": 6037,
      "zed": 6038,
      "Ġseeing": 6039,
      "Ġbiod": 6040,
      "Ġrein": 6041,
      "ua": 6042,
      "Ġsubsequ": 6043,
      "ĠStudy": 6044,
      "irus": 6045,
      "Ġvulnerable": 6046,
      "Ġ*": 6047,
      "ĠKen": 6048,
      "Ġnewsp": 6049,
      "Ġswim": 6050,
      "racy": 6051,
      "Ġappoint": 6052,
      "EP": 6053,
      "ĠMicro": 6054,
      "Rec": 6055,
      "Ġexamine": 6056,
      "bran": 6057,
      "Ġinject": 6058,
      "Ġstock": 6059,
      "Ġappreci": 6060,
      "war": 6061,
      "Ġweap": 6062,
      "Ġinstruments": 6063,
      "Ġsmoking": 6064,
      "osqu": 6065,
      "Ġunlike": 6066,
      "Ġminerals": 6067,
      "Ġemployees": 6068,
      "Ġrhy": 6069,
      "Ġblocks": 6070,
      "reland": 6071,
      "Ġregional": 6072,
      "Ġdescription": 6073,
      "Ġmarked": 6074,
      "Ġaims": 6075,
      "orous": 6076,
      "Ġreturned": 6077,
      "luding": 6078,
      "ĠYet": 6079,
      "Ġpossibly": 6080,
      "Ġtrial": 6081,
      "Ġorganized": 6082,
      "ĠAcademy": 6083,
      "99": 6084,
      "zen": 6085,
      "olf": 6086,
      "ymph": 6087,
      "Ġtransmission": 6088,
      "Ġinner": 6089,
      "ĠYear": 6090,
      "Ġnearby": 6091,
      "Ġjustice": 6092,
      "uous": 6093,
      "Â·": 6094,
      "Ġtons": 6095,
      "Ġ2004": 6096,
      "ested": 6097,
      "under": 6098,
      "hand": 6099,
      "Ġexchange": 6100,
      "hered": 6101,
      "Ġaircraft": 6102,
      "ĠParis": 6103,
      "ĠBro": 6104,
      "Ġpainting": 6105,
      "called": 6106,
      "ĠScot": 6107,
      "icon": 6108,
      "Ġadoles": 6109,
      "Ġmedication": 6110,
      "ĠMo": 6111,
      "Ġclosed": 6112,
      "Ġhistoric": 6113,
      "VID": 6114,
      "umps": 6115,
      "Ġgluc": 6116,
      "Ġauthority": 6117,
      "Ġconcrete": 6118,
      "ĠCarolina": 6119,
      "yles": 6120,
      "ĠSpec": 6121,
      "Ġfewer": 6122,
      "Ġhoriz": 6123,
      "Ġislands": 6124,
      "Ġtro": 6125,
      "Ġfract": 6126,
      "atever": 6127,
      "point": 6128,
      "Ġclaims": 6129,
      "Ġtaste": 6130,
      "ena": 6131,
      "Ġbreath": 6132,
      "Ġmit": 6133,
      ".âĢĻ": 6134,
      "level": 6135,
      "Ġserver": 6136,
      "anged": 6137,
      "Ġtheme": 6138,
      "ohyd": 6139,
      "ĠChristmas": 6140,
      "Ġreader": 6141,
      "Ġcircuit": 6142,
      "gent": 6143,
      "Ġnoise": 6144,
      "ĠAgricult": 6145,
      "Ġdefine": 6146,
      "ansion": 6147,
      "Ġtransition": 6148,
      "Ġflower": 6149,
      "Ġclust": 6150,
      "Ġcorrespond": 6151,
      "Ġlin": 6152,
      "ston": 6153,
      "Ġscientist": 6154,
      "ĠAtt": 6155,
      "My": 6156,
      "formation": 6157,
      "Ġsharing": 6158,
      "uts": 6159,
      "ague": 6160,
      "Ġindicates": 6161,
      "Ġlaunched": 6162,
      "ĠAdminist": 6163,
      "Ġusage": 6164,
      "ĠLearn": 6165,
      "Des": 6166,
      "Ear": 6167,
      "rors": 6168,
      "Ġearthqu": 6169,
      "zil": 6170,
      "othe": 6171,
      "osal": 6172,
      "Ġmanaged": 6173,
      "Ġhem": 6174,
      "Ġfocuses": 6175,
      "urric": 6176,
      "Ġarms": 6177,
      "Ġarchae": 6178,
      "Ġdensity": 6179,
      "uter": 6180,
      "ĠVis": 6181,
      "ĠTeac": 6182,
      "osion": 6183,
      "izer": 6184,
      "iated": 6185,
      "Ġmac": 6186,
      "Ġnose": 6187,
      "Ġru": 6188,
      "Ġroof": 6189,
      "Ġtea": 6190,
      "Ġattached": 6191,
      ".|": 6192,
      "Ġwors": 6193,
      "Ġselection": 6194,
      "Ġwife": 6195,
      "ĠIreland": 6196,
      "Ġviruses": 6197,
      "Ġobtained": 6198,
      "Ġgram": 6199,
      "Ġpoison": 6200,
      "umes": 6201,
      "ĠStr": 6202,
      "ĠSciences": 6203,
      "Ġacts": 6204,
      "Ġpersons": 6205,
      "Ġviews": 6206,
      "mes": 6207,
      "Ġoverl": 6208,
      "Ġsheet": 6209,
      "ĠSmith": 6210,
      "Ġmathematics": 6211,
      "throp": 6212,
      "IL": 6213,
      "Ġsin": 6214,
      "Ġpersist": 6215,
      "ĠCare": 6216,
      "Ġgreatly": 6217,
      "Ġuniversity": 6218,
      "zheimer": 6219,
      "asp": 6220,
      "asters": 6221,
      "earing": 6222,
      "Ġelectro": 6223,
      "Ġspaces": 6224,
      "oster": 6225,
      "ĠBur": 6226,
      "ĠLeg": 6227,
      "Ġconventional": 6228,
      "âĢĺ": 6229,
      "Ġlect": 6230,
      "lements": 6231,
      "ĠTor": 6232,
      "Ġremark": 6233,
      "ĠAnother": 6234,
      "Ġreserv": 6235,
      "Ġimpossible": 6236,
      "Ġbudget": 6237,
      "Ġlies": 6238,
      "Ġrepeated": 6239,
      "Ġdedicated": 6240,
      "Ġlisten": 6241,
      "Ġthor": 6242,
      "ĠFurther": 6243,
      "rite": 6244,
      "isk": 6245,
      "ediatric": 6246,
      "Ġprinciple": 6247,
      "ĠMuslim": 6248,
      "ĠConstitution": 6249,
      "Ġpure": 6250,
      "ĠTime": 6251,
      "cycl": 6252,
      "orter": 6253,
      "Ġfunding": 6254,
      "osph": 6255,
      "Ġends": 6256,
      "Ġagency": 6257,
      "Ġagencies": 6258,
      "ĠThose": 6259,
      "Ġsupports": 6260,
      "ocratic": 6261,
      "Ġrocks": 6262,
      "Ġleadership": 6263,
      "Ġsatellite": 6264,
      "asty": 6265,
      "Ġaccident": 6266,
      "36": 6267,
      "opic": 6268,
      "Ġhandle": 6269,
      "Ġargument": 6270,
      "net": 6271,
      "Ġ<": 6272,
      "iology": 6273,
      "ingly": 6274,
      "Ġdecide": 6275,
      "Ġextended": 6276,
      "Ġneighbor": 6277,
      "Ġadequ": 6278,
      "Ġdebate": 6279,
      "ĠBre": 6280,
      "nam": 6281,
      "inction": 6282,
      "airy": 6283,
      "Ġfro": 6284,
      "phone": 6285,
      "tering": 6286,
      "Ġburning": 6287,
      "ĠPers": 6288,
      "Äģ": 6289,
      "ĠGard": 6290,
      "Ġinsulin": 6291,
      "Another": 6292,
      "Ġmoisture": 6293,
      "ĠEmpire": 6294,
      "ĠIP": 6295,
      "ĠAny": 6296,
      "Ġafford": 6297,
      "la": 6298,
      "Ġparticipate": 6299,
      "Ġinterests": 6300,
      "Ġdamaged": 6301,
      "Ġgun": 6302,
      "pread": 6303,
      "Ġlayers": 6304,
      "Pre": 6305,
      "Ġmold": 6306,
      "icking": 6307,
      "rus": 6308,
      "ione": 6309,
      "Ġsuc": 6310,
      "ĠJud": 6311,
      "ĠMr": 6312,
      "ĠHome": 6313,
      "Ġsatis": 6314,
      "Ġscan": 6315,
      "ĠNav": 6316,
      "Ġpray": 6317,
      "Ġinvestment": 6318,
      "ĠOh": 6319,
      "Ġgenet": 6320,
      "Ġinteraction": 6321,
      "Ġthousand": 6322,
      "Ġinstructions": 6323,
      "ora": 6324,
      "ĠAI": 6325,
      "Ġaccum": 6326,
      "ĠEarly": 6327,
      "Ġachieved": 6328,
      "add": 6329,
      "Ġnervous": 6330,
      "Ġcarefully": 6331,
      "Ġoldest": 6332,
      "body": 6333,
      "reated": 6334,
      "Ġpair": 6335,
      "ĠOnly": 6336,
      "rooms": 6337,
      "osc": 6338,
      "bert": 6339,
      "Ġremaining": 6340,
      "Ġcav": 6341,
      "Ġhole": 6342,
      "ĠPan": 6343,
      "Ġcircumst": 6344,
      "Ġbees": 6345,
      "Ġchrom": 6346,
      "nee": 6347,
      "Ġtropical": 6348,
      "Ġveter": 6349,
      "Ġgap": 6350,
      "Ġdiag": 6351,
      "Ġunderlying": 6352,
      "ĠSpain": 6353,
      "Ġspiritual": 6354,
      "ĠAtlantic": 6355,
      "ĠCompany": 6356,
      "ipping": 6357,
      "Qu": 6358,
      "oral": 6359,
      "orses": 6360,
      "Ġsurfaces": 6361,
      "angered": 6362,
      "Ġartists": 6363,
      "idespread": 6364,
      "Ġcryst": 6365,
      "Ġkidney": 6366,
      "omer": 6367,
      "osquit": 6368,
      "Ġpref": 6369,
      "Ġaccepted": 6370,
      "ĠResources": 6371,
      "then": 6372,
      "sey": 6373,
      "ĠRome": 6374,
      "Ġ150": 6375,
      "irt": 6376,
      "Ġinfect": 6377,
      "Ġfeeding": 6378,
      "Ġentirely": 6379,
      "Ġtoler": 6380,
      "anta": 6381,
      "Ġgenerations": 6382,
      "Ġtut": 6383,
      "Ġincred": 6384,
      "Ġcandid": 6385,
      "Ġpool": 6386,
      "igital": 6387,
      "ipedia": 6388,
      "Ġbear": 6389,
      "Ġoutbre": 6390,
      "Ġcapture": 6391,
      "Ġsequence": 6392,
      ":||": 6393,
      "Ġpaid": 6394,
      "stract": 6395,
      "ogue": 6396,
      "Ġshut": 6397,
      "Ġopposite": 6398,
      "ella": 6399,
      "ĠItaly": 6400,
      "ĠRevolution": 6401,
      "ĠExt": 6402,
      "Ġvirtual": 6403,
      "ĠAgency": 6404,
      "Ġflag": 6405,
      "iox": 6406,
      "Ġarts": 6407,
      "Ġscript": 6408,
      "Ġethnic": 6409,
      "eenth": 6410,
      "Ġbread": 6411,
      "ĠPenn": 6412,
      "ĠGold": 6413,
      "Ġstated": 6414,
      "ĠSupp": 6415,
      "Ġspok": 6416,
      "Ġindependence": 6417,
      "ĠDiff": 6418,
      "Ġmixed": 6419,
      "Ġvocabulary": 6420,
      "ka": 6421,
      "Ġobst": 6422,
      "lar": 6423,
      "Ġphoto": 6424,
      "ented": 6425,
      "igan": 6426,
      "Ġscholars": 6427,
      "Ġhun": 6428,
      "ĠAst": 6429,
      "Ġwasn": 6430,
      "ĠWindows": 6431,
      "Ġchick": 6432,
      "ĠLong": 6433,
      "Ġneuro": 6434,
      "Ġ2003": 6435,
      "ĠGuide": 6436,
      "ĠCa": 6437,
      "ĠExper": 6438,
      "een": 6439,
      "Ġ1980": 6440,
      "Ġpossess": 6441,
      "Ġdrought": 6442,
      "ĠVictor": 6443,
      "Ġmere": 6444,
      "Ġhero": 6445,
      "ĠEnd": 6446,
      "33": 6447,
      "antly": 6448,
      "Ġhappy": 6449,
      "Ġreplaced": 6450,
      "utch": 6451,
      "Ġannounced": 6452,
      "Ġoptim": 6453,
      "Ġrepresented": 6454,
      "Ġimper": 6455,
      "Ġparam": 6456,
      "Ġpounds": 6457,
      "ĠPlease": 6458,
      "ĠGroup": 6459,
      "Ġamazing": 6460,
      "ĠGeorg": 6461,
      "ĠDire": 6462,
      "amins": 6463,
      "itudes": 6464,
      "nect": 6465,
      "ĠBig": 6466,
      "Ġabsolute": 6467,
      "Ġdemonstrate": 6468,
      "irty": 6469,
      "Ġhydro": 6470,
      "alse": 6471,
      "Ġmechanism": 6472,
      "ĠStat": 6473,
      "Ġcategories": 6474,
      "Ġsections": 6475,
      "Ġchosen": 6476,
      "Ġaccessible": 6477,
      "IDS": 6478,
      ")|": 6479,
      "Ġnest": 6480,
      "Ġships": 6481,
      "Ġterritory": 6482,
      "Ġunable": 6483,
      "Ġconnections": 6484,
      "Ġchallenging": 6485,
      "ĠColumbia": 6486,
      "Ġfung": 6487,
      "ults": 6488,
      "Ġzone": 6489,
      "ittle": 6490,
      "ĠRad": 6491,
      "Ġreactions": 6492,
      "Ġgiant": 6493,
      "ĠGal": 6494,
      "aked": 6495,
      "aska": 6496,
      "Ġtrip": 6497,
      "ĠDan": 6498,
      "ĠDet": 6499,
      "Ġintest": 6500,
      "ĠSov": 6501,
      "ĠMath": 6502,
      "Ġperce": 6503,
      "Ġmaintenance": 6504,
      "ĠAlex": 6505,
      "ĠAlzheimer": 6506,
      "Ġcounty": 6507,
      "Ġbiology": 6508,
      "ini": 6509,
      "oted": 6510,
      "Ġjoin": 6511,
      "Ġphenomenon": 6512,
      "Ġequivalent": 6513,
      "Ġbrings": 6514,
      "ifications": 6515,
      "Ġvideos": 6516,
      "ĠCult": 6517,
      "Ġ1970": 6518,
      "utrition": 6519,
      "lder": 6520,
      "pat": 6521,
      "ups": 6522,
      "Ġbridge": 6523,
      "Ġpsychological": 6524,
      "heric": 6525,
      "ovascular": 6526,
      "Ġchest": 6527,
      "Ġcorpor": 6528,
      "Ġliteracy": 6529,
      "Ġobservations": 6530,
      "Ġmice": 6531,
      "ĠJe": 6532,
      "elled": 6533,
      "ĠKeep": 6534,
      "ĠOffice": 6535,
      "Ġheating": 6536,
      "icians": 6537,
      "liam": 6538,
      "Ġfold": 6539,
      "Ġphilosophy": 6540,
      "Ġ1960": 6541,
      "Ġcircle": 6542,
      "ait": 6543,
      "lo": 6544,
      "ĠCat": 6545,
      "Ġglucose": 6546,
      "Ġyield": 6547,
      "Ġplayers": 6548,
      "print": 6549,
      "Ġrobot": 6550,
      "ĠAS": 6551,
      "Ġroughly": 6552,
      "ĠType": 6553,
      "teen": 6554,
      "People": 6555,
      "Ġwidespread": 6556,
      "idering": 6557,
      "ĠChic": 6558,
      "ĠSuch": 6559,
      "ĠHave": 6560,
      "Ġprompt": 6561,
      "ĠPsych": 6562,
      "Ġexists": 6563,
      "ĠOx": 6564,
      "Ġdoor": 6565,
      "ĠUSA": 6566,
      "ymptoms": 6567,
      "no": 6568,
      "Ġbrush": 6569,
      "Ġinteractive": 6570,
      "Researchers": 6571,
      "roat": 6572,
      "xts": 6573,
      "Ġfrequent": 6574,
      "iform": 6575,
      "ĠWood": 6576,
      "Ġintellect": 6577,
      "Ġresearcher": 6578,
      "anda": 6579,
      "isters": 6580,
      "ocracy": 6581,
      "Ġrespiratory": 6582,
      "Ġphotos": 6583,
      "BS": 6584,
      "ĠScott": 6585,
      "Ġmeth": 6586,
      "Ġabnormal": 6587,
      "Ġdomin": 6588,
      "Ġknows": 6589,
      "Ġearliest": 6590,
      "Ġpercentage": 6591,
      "ĠProv": 6592,
      "Ġsupporting": 6593,
      "Ġsmooth": 6594,
      "arents": 6595,
      "Ġcontained": 6596,
      "ĠMad": 6597,
      "Ġdistur": 6598,
      "Ġtruly": 6599,
      "Ġmarks": 6600,
      "ĠDiv": 6601,
      "ĠFree": 6602,
      "ĠAdd": 6603,
      "Ġstatistics": 6604,
      "such": 6605,
      "ĠRoyal": 6606,
      "icide": 6607,
      "Ġboys": 6608,
      "Ġfarming": 6609,
      "ivery": 6610,
      "Ġneur": 6611,
      "Ġ2001": 6612,
      "Ġrestrict": 6613,
      "Ġultimately": 6614,
      "Ġworry": 6615,
      "Ġpossibility": 6616,
      "Ġvariable": 6617,
      "Ġtract": 6618,
      "Ġpurchase": 6619,
      "ĠStep": 6620,
      "Comp": 6621,
      "Ġcup": 6622,
      "Ġborder": 6623,
      "Ġeducators": 6624,
      "Ġmechanical": 6625,
      "Ġbreeding": 6626,
      "Ġresponses": 6627,
      "spec": 6628,
      "Of": 6629,
      "Ġevaluate": 6630,
      "Ġsell": 6631,
      "Ġshift": 6632,
      "Ġ31": 6633,
      "ĠBrazil": 6634,
      "Ġfell": 6635,
      "Ġstanding": 6636,
      "Ġinvolving": 6637,
      "Ġlimits": 6638,
      "Ġongoing": 6639,
      "oding": 6640,
      "Ġrefuge": 6641,
      "Ġfacing": 6642,
      "Ġamb": 6643,
      "Ġlaunch": 6644,
      "Ġmeal": 6645,
      "char": 6646,
      "Ġpolice": 6647,
      "Ġfixed": 6648,
      "Ġbor": 6649,
      "Ġgrows": 6650,
      "igned": 6651,
      "ĠMoon": 6652,
      "itative": 6653,
      "Ġcancers": 6654,
      "Ġregulations": 6655,
      "Ġirrit": 6656,
      "tra": 6657,
      "Ġlake": 6658,
      "Ġcomposed": 6659,
      "ĠExp": 6660,
      "Ġestimates": 6661,
      "ĠForest": 6662,
      "Ġcooking": 6663,
      "how": 6664,
      "Ġarrived": 6665,
      "Ġfavorite": 6666,
      "eren": 6667,
      "Ġfo": 6668,
      "ighter": 6669,
      "Ġsunlight": 6670,
      "Ġturning": 6671,
      "Ġpregnant": 6672,
      "Ġmood": 6673,
      "rovers": 6674,
      "ĠRob": 6675,
      "Ġdisaster": 6676,
      "Ġjoined": 6677,
      "Ġconstructed": 6678,
      "LA": 6679,
      "eless": 6680,
      "Ġplanets": 6681,
      "Ġoccasion": 6682,
      "Ġhormone": 6683,
      "ĠFort": 6684,
      "Ġaf": 6685,
      "Ġintense": 6686,
      "Ġcentre": 6687,
      "Ġgases": 6688,
      "ĠCamp": 6689,
      "liament": 6690,
      "onia": 6691,
      "Ġvarieties": 6692,
      "ildren": 6693,
      "Ġprison": 6694,
      "urrent": 6695,
      "Ġpresents": 6696,
      "Ġmoral": 6697,
      "ĠSometimes": 6698,
      "Ġmarriage": 6699,
      "Ġturb": 6700,
      "ĠPC": 6701,
      "rd": 6702,
      "itting": 6703,
      "Ġdut": 6704,
      "Ġconsumer": 6705,
      "Ġindustries": 6706,
      "Ġmissing": 6707,
      "Ġdates": 6708,
      "Ġparties": 6709,
      "Ġdestroyed": 6710,
      "but": 6711,
      "Ġcollaboration": 6712,
      "DP": 6713,
      "icious": 6714,
      "Ġgone": 6715,
      "Ġorbit": 6716,
      "riers": 6717,
      "Ġruns": 6718,
      "Ġax": 6719,
      "Ġputting": 6720,
      "allel": 6721,
      "Ġworkshe": 6722,
      "Ġissued": 6723,
      "ĠZeal": 6724,
      "cher": 6725,
      "Ġconscious": 6726,
      "Ġdanger": 6727,
      "Ġahead": 6728,
      "Ġrelax": 6729,
      "Learn": 6730,
      "78": 6731,
      "Hist": 6732,
      "ĠAge": 6733,
      "Ġholds": 6734,
      "48": 6735,
      "Ġblow": 6736,
      "Ġring": 6737,
      "Ġearn": 6738,
      "Ġartist": 6739,
      "Ġexercises": 6740,
      "Ġcomparison": 6741,
      "mers": 6742,
      "Ġunless": 6743,
      "Ġtrained": 6744,
      "Ġevaluation": 6745,
      "aine": 6746,
      "ĠLess": 6747,
      "Ġmembran": 6748,
      "Ġerror": 6749,
      "ĠFrank": 6750,
      "________": 6751,
      "Ġsettings": 6752,
      "Even": 6753,
      "Ġourselves": 6754,
      "Ġjump": 6755,
      "arsh": 6756,
      "Ġbond": 6757,
      "ĠPrevention": 6758,
      "ĠSafety": 6759,
      "gers": 6760,
      "ĠChange": 6761,
      "Ġratio": 6762,
      "ĠJoseph": 6763,
      "Ġrely": 6764,
      "inity": 6765,
      "Ġcrow": 6766,
      "ĠCoast": 6767,
      "Ġexplanation": 6768,
      "IP": 6769,
      "ita": 6770,
      "orical": 6771,
      "Ġzero": 6772,
      "Ġrice": 6773,
      "ĠFace": 6774,
      "Ġregul": 6775,
      "oln": 6776,
      "reek": 6777,
      "ditional": 6778,
      "Ġtrouble": 6779,
      "Ġrecognition": 6780,
      "âĢĻ,": 6781,
      "ĠKingdom": 6782,
      "Ġimmediate": 6783,
      "Ġov": 6784,
      "Ġtherap": 6785,
      "iration": 6786,
      "anes": 6787,
      "gs": 6788,
      "ĠWord": 6789,
      "Ġfighting": 6790,
      "Ġattend": 6791,
      "ĠReading": 6792,
      "Part": 6793,
      "Ġdecay": 6794,
      "Ġfalls": 6795,
      "Ġbreed": 6796,
      "eor": 6797,
      "Ġdepartment": 6798,
      "ĠMag": 6799,
      "Ġmoves": 6800,
      "lu": 6801,
      "Ġmur": 6802,
      "Ġobtain": 6803,
      "ĠTake": 6804,
      "ĠPract": 6805,
      "ĠZealand": 6806,
      "itamin": 6807,
      "Ġdaughter": 6808,
      "Ġprev": 6809,
      "Ġbeliefs": 6810,
      "Ġinstalled": 6811,
      "Ġestimate": 6812,
      "Ġunusual": 6813,
      "Ġped": 6814,
      "Ġpreventing": 6815,
      "Ġboy": 6816,
      "orders": 6817,
      "Ġreduces": 6818,
      "Ġimplementation": 6819,
      "Ġpestic": 6820,
      "Ġsport": 6821,
      "ustain": 6822,
      "Ġangle": 6823,
      "ĠBrown": 6824,
      "ĠBefore": 6825,
      "Ġlungs": 6826,
      "Ġtub": 6827,
      "adder": 6828,
      "ocation": 6829,
      "stein": 6830,
      "Ġmanip": 6831,
      "ublished": 6832,
      "Ġthanks": 6833,
      "ĠPlant": 6834,
      "Ġprinted": 6835,
      "95": 6836,
      "Ġtube": 6837,
      "Ġmales": 6838,
      "Ġhoney": 6839,
      "Ġhousing": 6840,
      "Ġconsume": 6841,
      "ĠBab": 6842,
      "Once": 6843,
      "Ġbranches": 6844,
      "itter": 6845,
      "avery": 6846,
      "Ġ75": 6847,
      "Ġgro": 6848,
      "acco": 6849,
      "Ġintegrated": 6850,
      "Ġdesigns": 6851,
      "About": 6852,
      "Ġske": 6853,
      "Ġvalid": 6854,
      "Ġmaintaining": 6855,
      "Col": 6856,
      "health": 6857,
      "Ġmineral": 6858,
      "cyclop": 6859,
      "Ġtexts": 6860,
      "Because": 6861,
      "Ġforget": 6862,
      "Ġcomplicated": 6863,
      "Ġassistance": 6864,
      "Ġvoltage": 6865,
      "Ġstre": 6866,
      "Ġlearners": 6867,
      "Ġmand": 6868,
      "ĠEastern": 6869,
      "Ġevolved": 6870,
      "Ġwish": 6871,
      "ĠList": 6872,
      "alls": 6873,
      "Ġnitrogen": 6874,
      "Each": 6875,
      "Ġcolumn": 6876,
      "Ġbrows": 6877,
      "ĠSet": 6878,
      "acu": 6879,
      "Ġchemistry": 6880,
      "scale": 6881,
      "Ġoccurring": 6882,
      "abled": 6883,
      "Ġcharacterized": 6884,
      "bur": 6885,
      "Ġmining": 6886,
      "OC": 6887,
      "Ġengineers": 6888,
      "Last": 6889,
      "Ġobjective": 6890,
      "Ġautism": 6891,
      "incoln": 6892,
      "kins": 6893,
      "Ġdecor": 6894,
      "Ġsurprising": 6895,
      "ĠâĢ¢": 6896,
      "gu": 6897,
      "ĠPo": 6898,
      "Ġmarried": 6899,
      "ioxid": 6900,
      "Ġwitness": 6901,
      "Ġminute": 6902,
      "Ġrealize": 6903,
      "Ġmm": 6904,
      "Ġalph": 6905,
      "hyd": 6906,
      "76": 6907,
      "Ġstable": 6908,
      "everal": 6909,
      "Ġcircumstances": 6910,
      "Ġtheories": 6911,
      "Ġcompare": 6912,
      "Ġprotocol": 6913,
      "Ġouter": 6914,
      "onal": 6915,
      "Ġspending": 6916,
      "ĠFamily": 6917,
      "Ġgrid": 6918,
      "ĠItalian": 6919,
      "ĠOpen": 6920,
      "hesis": 6921,
      "Ġcenters": 6922,
      "Ġtank": 6923,
      "ĠSoviet": 6924,
      "Go": 6925,
      "ĠDoes": 6926,
      "Ġentry": 6927,
      "Ġbigger": 6928,
      "Ġwriter": 6929,
      "ograp": 6930,
      "Ġframe": 6931,
      "amps": 6932,
      "Ġdisabilities": 6933,
      "Ġaward": 6934,
      "Ġrepair": 6935,
      "ourage": 6936,
      "Ġmetabol": 6937,
      "Ġment": 6938,
      "ĠCre": 6939,
      "ocy": 6940,
      "Ġfuels": 6941,
      "ĠCreat": 6942,
      "Ġfemales": 6943,
      "ĠIrish": 6944,
      "tles": 6945,
      "Ġhazard": 6946,
      "Ġpapers": 6947,
      "Ġcompound": 6948,
      "Ġvote": 6949,
      "Ġsurve": 6950,
      "Ġconstantly": 6951,
      "Ġpra": 6952,
      "Ġmechanisms": 6953,
      "making": 6954,
      "Ġpurs": 6955,
      "Ġshop": 6956,
      "tic": 6957,
      "rency": 6958,
      "Ġmeasurement": 6959,
      "Ġresulted": 6960,
      "Ġdrawn": 6961,
      "Ġconversation": 6962,
      "ocking": 6963,
      "Ġmeasuring": 6964,
      "Ġoperate": 6965,
      "Ġcompetition": 6966,
      "ĠPeter": 6967,
      "Ġexamined": 6968,
      "Ġconsistent": 6969,
      "Ġdys": 6970,
      "Ġrig": 6971,
      "Ġagreement": 6972,
      "HD": 6973,
      "ceans": 6974,
      "Ġplenty": 6975,
      "Ġ400": 6976,
      "Ġvisitors": 6977,
      "fts": 6978,
      "Ġdistributed": 6979,
      "Ġingredients": 6980,
      "Ġathlet": 6981,
      "Ġmessages": 6982,
      "Ġblind": 6983,
      "Ġrarely": 6984,
      "Ġtwenty": 6985,
      "Ġcopper": 6986,
      "ĠCap": 6987,
      "Ġvs": 6988,
      "angle": 6989,
      "ĠCentre": 6990,
      "Ġbeauty": 6991,
      "Ġcarbohyd": 6992,
      "asses": 6993,
      "Ġsupplement": 6994,
      "produ": 6995,
      "Ġcontrols": 6996,
      "Ġasking": 6997,
      "Ġaged": 6998,
      "ĠReport": 6999,
      "Ġtowns": 7000,
      "ĠCOVID": 7001,
      "Ġholes": 7002,
      "Ġintervention": 7003,
      "Ġexplo": 7004,
      "Ġprinting": 7005,
      "Ġadministr": 7006,
      "ĠEqu": 7007,
      "Ġseconds": 7008,
      "Ġopinion": 7009,
      "Ġsignificance": 7010,
      "Ġfunctional": 7011,
      "OL": 7012,
      "Ġitem": 7013,
      "ĠSing": 7014,
      "Ġscene": 7015,
      "door": 7016,
      "Ġbath": 7017,
      "ĠLiter": 7018,
      "ĠThough": 7019,
      "Ġpublication": 7020,
      "Ġflows": 7021,
      "Ġmicrosc": 7022,
      "Ġimagine": 7023,
      "Ġadministration": 7024,
      "Ġfest": 7025,
      "Ġresident": 7026,
      "Ġfashion": 7027,
      "riz": 7028,
      "ĠEss": 7029,
      "ĠEc": 7030,
      "soft": 7031,
      "Before": 7032,
      "38": 7033,
      "Ġclothing": 7034,
      "UT": 7035,
      "ether": 7036,
      "mentia": 7037,
      "outs": 7038,
      "Ġconfidence": 7039,
      "ĠReview": 7040,
      "Ġfairly": 7041,
      "ĠMichael": 7042,
      "Ġparas": 7043,
      "Ġmeasurements": 7044,
      "cribed": 7045,
      "Ġstrain": 7046,
      "Ġsupposed": 7047,
      "Ġmolecular": 7048,
      "Ġcontemporary": 7049,
      "Ġaffecting": 7050,
      "ĠDistrict": 7051,
      "ĠRichard": 7052,
      "ĠTV": 7053,
      "Ġprove": 7054,
      "ontal": 7055,
      "ĠEth": 7056,
      "Ġpla": 7057,
      "Ġresolution": 7058,
      "Ġcategory": 7059,
      "hav": 7060,
      "ĠAnn": 7061,
      "ĠConservation": 7062,
      "Ġlights": 7063,
      "estion": 7064,
      "Ġexpansion": 7065,
      "Ġinteractions": 7066,
      "ĠLib": 7067,
      "Ġhop": 7068,
      "Ġcontrovers": 7069,
      "Ġproven": 7070,
      "Ġnecessarily": 7071,
      "Ġmusical": 7072,
      "ĠMartin": 7073,
      "ĠColorado": 7074,
      "Am": 7075,
      "IM": 7076,
      "Ġfailed": 7077,
      "Ġmosquit": 7078,
      "aph": 7079,
      "Ġcleaning": 7080,
      "Ġwarning": 7081,
      "Ġholiday": 7082,
      "Ġdiameter": 7083,
      "34": 7084,
      "Ġmathematical": 7085,
      "ĠChicago": 7086,
      "Ġroads": 7087,
      "Under": 7088,
      "lig": 7089,
      "she": 7090,
      "ĠOrganization": 7091,
      "Ġinfluenced": 7092,
      "Ġmatch": 7093,
      "ieval": 7094,
      "32": 7095,
      "Ġcoc": 7096,
      "Ġ36": 7097,
      "Ġmountains": 7098,
      "Ġinnovative": 7099,
      "itely": 7100,
      "Ġsail": 7101,
      "ulty": 7102,
      "vard": 7103,
      "itivity": 7104,
      "Ġshif": 7105,
      "ĠAdministration": 7106,
      "pet": 7107,
      "Ġoverw": 7108,
      "ĠEngineering": 7109,
      "gien": 7110,
      "Ġabilities": 7111,
      "Ġfeat": 7112,
      "Ġmicrob": 7113,
      "Ġbranch": 7114,
      "ucky": 7115,
      "Using": 7116,
      "reed": 7117,
      "ĠArctic": 7118,
      "Ġspin": 7119,
      "Ġinspired": 7120,
      "ĠMichigan": 7121,
      "Ġloved": 7122,
      "icy": 7123,
      "Ġfourth": 7124,
      "Ġpassage": 7125,
      "Ġdebt": 7126,
      "Ġdiscrimination": 7127,
      "otton": 7128,
      "ĠBoard": 7129,
      "Ġdeeper": 7130,
      "Ġ180": 7131,
      "ixture": 7132,
      "Ġ2002": 7133,
      "ĠSwed": 7134,
      "Ġhonor": 7135,
      "Ġfurn": 7136,
      "ĠCommit": 7137,
      "Ġfats": 7138,
      "Ġrect": 7139,
      "ĠStreet": 7140,
      "ĠWorks": 7141,
      "Ġintroduce": 7142,
      "39": 7143,
      "Or": 7144,
      "Ġshad": 7145,
      "Ġhorses": 7146,
      "ĠAcc": 7147,
      "aming": 7148,
      "ĠAsian": 7149,
      "Ġindeed": 7150,
      "Ġdelivery": 7151,
      "Ġcrime": 7152,
      "Ġfishing": 7153,
      "Ġbrand": 7154,
      "ĠMill": 7155,
      "Ġrose": 7156,
      "Ġbiom": 7157,
      "Ġ65": 7158,
      "Ġlistening": 7159,
      "Ġvitamins": 7160,
      "Ġsensors": 7161,
      "Ġpeak": 7162,
      "including": 7163,
      "Ġcarrying": 7164,
      "Ġdollars": 7165,
      "ĠLin": 7166,
      "ogs": 7167,
      "ĠKids": 7168,
      "Ġreliable": 7169,
      "Ġlatter": 7170,
      "Ġcorner": 7171,
      "oir": 7172,
      "ĠSat": 7173,
      "Ġhabitats": 7174,
      "Ġpanels": 7175,
      "ĠDirector": 7176,
      "yroid": 7177,
      "Ġanywhere": 7178,
      "Ġthreats": 7179,
      "Ġsharp": 7180,
      "bles": 7181,
      "Ġhus": 7182,
      "Ġcreatures": 7183,
      "Ġexperiencing": 7184,
      "Ġvictims": 7185,
      "IR": 7186,
      "Ġinher": 7187,
      "Ġmode": 7188,
      "Ġimprovement": 7189,
      "Ġidentifying": 7190,
      "ercury": 7191,
      "Ġtransp": 7192,
      "Ġserving": 7193,
      "Ġbanks": 7194,
      "riend": 7195,
      "Ġspectrum": 7196,
      "Ġroles": 7197,
      "igue": 7198,
      "Ġcomputing": 7199,
      "ocolate": 7200,
      "Ġbringing": 7201,
      "Ġexpressed": 7202,
      "ĠFind": 7203,
      "Ġlegislation": 7204,
      "ĠDictionary": 7205,
      "Ġarray": 7206,
      "Ġthorough": 7207,
      "rous": 7208,
      "Ġroute": 7209,
      "Ġexcessive": 7210,
      "arant": 7211,
      "usal": 7212,
      "Ġreceiving": 7213,
      "ĠProtection": 7214,
      "Ġimplications": 7215,
      "Ġfinished": 7216,
      "uing": 7217,
      "Ġshot": 7218,
      "Ġphrase": 7219,
      "ĠScotland": 7220,
      "Ġrid": 7221,
      "Ġdefect": 7222,
      "ĠBank": 7223,
      "Ġcardiovascular": 7224,
      "anc": 7225,
      "Ġregist": 7226,
      "ĠWhere": 7227,
      "Ġwhereas": 7228,
      "Ġpreparation": 7229,
      "%.": 7230,
      "Ġnewly": 7231,
      "ĠConst": 7232,
      "ĠCheck": 7233,
      "IA": 7234,
      "Ġpassing": 7235,
      "37": 7236,
      "etime": 7237,
      "Ġconven": 7238,
      "ĠRom": 7239,
      "azine": 7240,
      "rays": 7241,
      "ĠRock": 7242,
      "plant": 7243,
      "edu": 7244,
      "ĠNaz": 7245,
      "Ġadvantages": 7246,
      "Ġacute": 7247,
      "Ġpowers": 7248,
      "ola": 7249,
      "amination": 7250,
      "ĠLincoln": 7251,
      "Ġpolitics": 7252,
      "Ġorb": 7253,
      "ĠDar": 7254,
      "onday": 7255,
      "Ġessentially": 7256,
      "Ġguidance": 7257,
      "Ġtraditions": 7258,
      "unicip": 7259,
      "App": 7260,
      "Ġpand": 7261,
      "olving": 7262,
      "Ġentered": 7263,
      "Ġlaser": 7264,
      "ivered": 7265,
      "Ġrecept": 7266,
      "emia": 7267,
      "Ġsubs": 7268,
      "Ġauthorities": 7269,
      "Ġdrivers": 7270,
      "oples": 7271,
      "Ġhypothes": 7272,
      "Get": 7273,
      "Ġcelebrate": 7274,
      "Ġecosystems": 7275,
      "Le": 7276,
      "SS": 7277,
      "Ġfacility": 7278,
      "usiness": 7279,
      "Ġprominent": 7280,
      "Wor": 7281,
      "aired": 7282,
      "cons": 7283,
      "Ġcough": 7284,
      "Ġedition": 7285,
      "Ġcontinuous": 7286,
      "ĠSpecial": 7287,
      "ĠMD": 7288,
      "Ġencoun": 7289,
      "Ġstreet": 7290,
      "Ġprocessed": 7291,
      "Ġcelebrated": 7292,
      "ollowing": 7293,
      "Ġcaught": 7294,
      "Ġflour": 7295,
      "Ġfeedback": 7296,
      "sm": 7297,
      "Ġplayer": 7298,
      "Ġcooling": 7299,
      "orph": 7300,
      "Ġeru": 7301,
      "Ġtrigger": 7302,
      "Ġwheel": 7303,
      "Ġacres": 7304,
      "Ġexciting": 7305,
      "Ġdeclared": 7306,
      "vania": 7307,
      "Ġdesire": 7308,
      "Ġcombat": 7309,
      "rine": 7310,
      "Ġglac": 7311,
      "Ġended": 7312,
      "ĠAND": 7313,
      "ĠOhio": 7314,
      "ihood": 7315,
      "ĠTimes": 7316,
      "ĠPlay": 7317,
      "Ġpartner": 7318,
      "forest": 7319,
      "Ġsigned": 7320,
      "Ġconstitution": 7321,
      "CE": 7322,
      "CH": 7323,
      "Sc": 7324,
      "Ġvariables": 7325,
      "Ġbiodiversity": 7326,
      "Ġweigh": 7327,
      "Ġdoubt": 7328,
      "Ġscore": 7329,
      "Ġdivision": 7330,
      "44": 7331,
      "ĠAdv": 7332,
      "Ġtrials": 7333,
      "Ġ1950": 7334,
      "Ġdelay": 7335,
      "elescope": 7336,
      "charge": 7337,
      "Ġconv": 7338,
      "bean": 7339,
      "ython": 7340,
      "hent": 7341,
      "Ġchlor": 7342,
      "peror": 7343,
      "Ġpharm": 7344,
      "Ġparticipation": 7345,
      "Ġorange": 7346,
      "Ġdisability": 7347,
      "Ġbatteries": 7348,
      "Ġstimul": 7349,
      "ĠSund": 7350,
      "isdom": 7351,
      "ala": 7352,
      "Ġspacecraft": 7353,
      "words": 7354,
      "arn": 7355,
      "ushed": 7356,
      "Ġserves": 7357,
      "Ġtreating": 7358,
      "Ġemployment": 7359,
      "Ġconfirmed": 7360,
      "ployment": 7361,
      "Ġdriver": 7362,
      "esis": 7363,
      "Ġdestruction": 7364,
      "Ġscreening": 7365,
      "ĠGeorgia": 7366,
      "Ġsmell": 7367,
      "Ġtong": 7368,
      "ĠClick": 7369,
      "Ġcovering": 7370,
      "Ġshaped": 7371,
      "Ġpupils": 7372,
      "fit": 7373,
      "Ġille": 7374,
      "Ġplus": 7375,
      "Ġpoem": 7376,
      "hea": 7377,
      "Ġteens": 7378,
      "Ġcaptured": 7379,
      "Ġantibiotics": 7380,
      "ĠDen": 7381,
      "Ġfatty": 7382,
      "Ġwhatever": 7383,
      "oven": 7384,
      "Ġexploration": 7385,
      "ĠMer": 7386,
      "ĠHy": 7387,
      "dule": 7388,
      "syl": 7389,
      "Ġwait": 7390,
      "occ": 7391,
      "berry": 7392,
      "Ġescape": 7393,
      "icate": 7394,
      "ĠIndust": 7395,
      "Ġwindows": 7396,
      "Ġantioxid": 7397,
      "Ġdifficulties": 7398,
      "AA": 7399,
      "uh": 7400,
      "Ġundert": 7401,
      "century": 7402,
      "Ġmortality": 7403,
      "Students": 7404,
      "ricts": 7405,
      "Ġstronger": 7406,
      "Ġtelevision": 7407,
      "Ġbeings": 7408,
      "Ġsitting": 7409,
      "rot": 7410,
      "ĠStart": 7411,
      "Ġdemonstrated": 7412,
      "Ġhappening": 7413,
      "Ġfires": 7414,
      "Ġbacterial": 7415,
      "Ġcomplications": 7416,
      "Ġpit": 7417,
      "Ġimplemented": 7418,
      "Ġpin": 7419,
      "otes": 7420,
      "Ġempt": 7421,
      "ometry": 7422,
      "inson": 7423,
      "Ġheritage": 7424,
      "ĠFacebook": 7425,
      "Ġflying": 7426,
      "ude": 7427,
      "Ġfinds": 7428,
      "Ġparallel": 7429,
      "ĠHeart": 7430,
      "ĠYoung": 7431,
      "Ġinnovation": 7432,
      "Ġformula": 7433,
      "Ġsentences": 7434,
      "ĠAmong": 7435,
      "Ġtheore": 7436,
      "Ġforming": 7437,
      "Ġfunctioning": 7438,
      "Ġsenior": 7439,
      "ĠVen": 7440,
      "aning": 7441,
      "Ġenorm": 7442,
      "Ġrecycling": 7443,
      "Ġtrends": 7444,
      "Ġtroops": 7445,
      "asts": 7446,
      "Ġimaging": 7447,
      "Ġtemple": 7448,
      "ĠDespite": 7449,
      "Ġswitch": 7450,
      "Ġtargets": 7451,
      "spe": 7452,
      "itals": 7453,
      "Ġorient": 7454,
      "Ġepis": 7455,
      "ĠServices": 7456,
      "Ġsucceed": 7457,
      "ĠWho": 7458,
      "dis": 7459,
      "inder": 7460,
      "Ġinterf": 7461,
      "ĠHeritage": 7462,
      "ĠAngel": 7463,
      "Ġusual": 7464,
      "Ġengaged": 7465,
      "Ġpanel": 7466,
      "Ġholding": 7467,
      "Ġdesert": 7468,
      "Ġfatal": 7469,
      "Ġtrauma": 7470,
      "Su": 7471,
      "Ġcustomers": 7472,
      "Ġinsert": 7473,
      "Ġdramatic": 7474,
      "Ġdelivered": 7475,
      "Ġdomain": 7476,
      "Art": 7477,
      "inally": 7478,
      "Ġstyles": 7479,
      "Ġprotecting": 7480,
      "Ġmanif": 7481,
      "Ġslavery": 7482,
      "Ġhardware": 7483,
      "Ġadequate": 7484,
      "Ġintellectual": 7485,
      "omers": 7486,
      "Ġdetection": 7487,
      "ĠIndians": 7488,
      "erior": 7489,
      "Ġacknow": 7490,
      "Ġneighborhood": 7491,
      "Ġstores": 7492,
      "ĠLow": 7493,
      "ĠKh": 7494,
      "Ġdevast": 7495,
      "Ġcyber": 7496,
      "Ġaccuracy": 7497,
      "Ġadolesc": 7498,
      "Ġrequest": 7499,
      "Ġinstitution": 7500,
      "Ġsole": 7501,
      "Ġclar": 7502,
      "Step": 7503,
      "Ġfer": 7504,
      "Ġobserve": 7505,
      "Ġdealing": 7506,
      "ĠGrand": 7507,
      "Ġknowing": 7508,
      "Ġarrange": 7509,
      "Ġanalyze": 7510,
      "mia": 7511,
      "ounce": 7512,
      "Ġgut": 7513,
      "neys": 7514,
      "Ġoffering": 7515,
      "una": 7516,
      "Ġpainful": 7517,
      "ĠClin": 7518,
      "Ġinhabit": 7519,
      "ht": 7520,
      "Ġengaging": 7521,
      "Ġreveal": 7522,
      "Ġfalse": 7523,
      "Ġstuff": 7524,
      "Ġlymph": 7525,
      "Ġindigenous": 7526,
      "Ġjoints": 7527,
      "ommun": 7528,
      "ĠSurvey": 7529,
      "ĠIslands": 7530,
      "Ġmothers": 7531,
      "mm": 7532,
      "ffective": 7533,
      "Ġmir": 7534,
      "ĠSil": 7535,
      "Click": 7536,
      "Ġdense": 7537,
      "Ġenables": 7538,
      "Ġworst": 7539,
      "Ġsomewhat": 7540,
      "Ġconsidering": 7541,
      "illa": 7542,
      "Ġranging": 7543,
      "Ġspots": 7544,
      "ĠHawai": 7545,
      "Ġspinal": 7546,
      "Ġurine": 7547,
      "46": 7548,
      "Ġexamination": 7549,
      "ima": 7550,
      "ogether": 7551,
      "Ġplanned": 7552,
      "Ġfinger": 7553,
      "Ġcorrectly": 7554,
      "rical": 7555,
      "Ġoverview": 7556,
      "Ġ32": 7557,
      "Ġillnesses": 7558,
      "amples": 7559,
      "Ġadvent": 7560,
      "igate": 7561,
      "Ġdependent": 7562,
      "ĠUt": 7563,
      "Ġgrains": 7564,
      "herent": 7565,
      "ori": 7566,
      "Ġmatters": 7567,
      "Ġteams": 7568,
      "Post": 7569,
      "apes": 7570,
      "Ġcrim": 7571,
      "Ġgat": 7572,
      "andon": 7573,
      "while": 7574,
      "Ġphotographs": 7575,
      "Ġeliminate": 7576,
      "amine": 7577,
      "ĠUnfortunately": 7578,
      "Ġattempts": 7579,
      "ouds": 7580,
      "Ġdairy": 7581,
      "ĠPen": 7582,
      "Ġplane": 7583,
      "Ġverb": 7584,
      "IG": 7585,
      "Ġrelation": 7586,
      "Ġprincipal": 7587,
      "Ġquarter": 7588,
      "ĠGulf": 7589,
      "Ġvaccines": 7590,
      "Ġcompost": 7591,
      "Ġrelief": 7592,
      "Ġdetected": 7593,
      "Ġwheat": 7594,
      "rav": 7595,
      "ulpt": 7596,
      "Ġplanting": 7597,
      "Ġemployed": 7598,
      "Ġexhibit": 7599,
      "sylvania": 7600,
      "Ġreaching": 7601,
      "oston": 7602,
      "She": 7603,
      "uset": 7604,
      "Ġconsumed": 7605,
      "chen": 7606,
      "Ġdevelops": 7607,
      "Ġseeking": 7608,
      "lymp": 7609,
      "ĠMethod": 7610,
      "Ġrab": 7611,
      "Ġanalys": 7612,
      "Ġfilter": 7613,
      "Ġrecommendations": 7614,
      "Ġrecover": 7615,
      "Ġhormones": 7616,
      "ĠViet": 7617,
      "ĠLaboratory": 7618,
      "ĠThree": 7619,
      "Ġsuscept": 7620,
      "Don": 7621,
      "ashes": 7622,
      "Ġobjectives": 7623,
      "Ġdecreased": 7624,
      "Ġsizes": 7625,
      "Ġfur": 7626,
      "ureau": 7627,
      "apor": 7628,
      "iana": 7629,
      "Ġmodified": 7630,
      "ĠSign": 7631,
      "Ġcrew": 7632,
      "Ġpollut": 7633,
      "Ġcord": 7634,
      "ĠHT": 7635,
      "ENT": 7636,
      "Ġaccompan": 7637,
      "Ġgained": 7638,
      "rize": 7639,
      "Ġgradually": 7640,
      "Ġglobe": 7641,
      "ki": 7642,
      "itt": 7643,
      "oured": 7644,
      "Ġcomments": 7645,
      "achuset": 7646,
      "Ġengines": 7647,
      "Ġsession": 7648,
      "achusetts": 7649,
      "Ġalle": 7650,
      "ishment": 7651,
      "Ġ1930": 7652,
      "Ġapproved": 7653,
      "Ġcattle": 7654,
      "icing": 7655,
      "Ġreject": 7656,
      "ĠScient": 7657,
      "ĠForm": 7658,
      "ptions": 7659,
      "Ġton": 7660,
      "astics": 7661,
      "ĠFour": 7662,
      "ĠLead": 7663,
      "eping": 7664,
      "ĠHill": 7665,
      "shaped": 7666,
      "Per": 7667,
      "rene": 7668,
      "Ġclassified": 7669,
      "Ġinitially": 7670,
      "Ġgrain": 7671,
      "ĠSecurity": 7672,
      "'m": 7673,
      "RA": 7674,
      "ĠWall": 7675,
      "ĠEU": 7676,
      "Ġfaced": 7677,
      "ĠCommittee": 7678,
      "Ġwine": 7679,
      "apse": 7680,
      "Ġguarant": 7681,
      "ĠIII": 7682,
      "Ġthroat": 7683,
      "Ġdance": 7684,
      "Ġsculpt": 7685,
      "Ġflash": 7686,
      "Ġorigins": 7687,
      "Where": 7688,
      "Ġsilver": 7689,
      "onym": 7690,
      "ĠDown": 7691,
      "Ġinsight": 7692,
      "ĠObs": 7693,
      "Ġnoun": 7694,
      "Ġmetals": 7695,
      "lete": 7696,
      "osh": 7697,
      "Ġphosph": 7698,
      "Ġspirit": 7699,
      "Ġeffectiveness": 7700,
      "Ġharder": 7701,
      "sis": 7702,
      "Ġinhib": 7703,
      "ĠPop": 7704,
      "Ġscar": 7705,
      "Ġfaces": 7706,
      "ĠAssess": 7707,
      "Ġconj": 7708,
      "Ġfunds": 7709,
      "Ġmeals": 7710,
      "Ġpolar": 7711,
      "Ġnob": 7712,
      "hire": 7713,
      "Ġstrict": 7714,
      "Ġ1999": 7715,
      "ĠCommunity": 7716,
      "onom": 7717,
      "ctu": 7718,
      "Ġreven": 7719,
      "Ġstead": 7720,
      "Ġatoms": 7721,
      "Ġassociation": 7722,
      "Ġnutrient": 7723,
      "Ġsettlement": 7724,
      "oli": 7725,
      "Ġchances": 7726,
      "Ġsolving": 7727,
      "Scientists": 7728,
      "Ġhidden": 7729,
      "Ġstrongly": 7730,
      "Ġfarms": 7731,
      "aws": 7732,
      "Ġmarkets": 7733,
      "Ġcritic": 7734,
      "Ġdietary": 7735,
      "acent": 7736,
      "Ġtransmitted": 7737,
      "Ġdefe": 7738,
      "Ġassociate": 7739,
      "Who": 7740,
      "ĠSuper": 7741,
      "Ġdementia": 7742,
      "ographical": 7743,
      "ĠWildlife": 7744,
      "Ġfed": 7745,
      "ĠBill": 7746,
      "lines": 7747,
      "ivest": 7748,
      "Ġracial": 7749,
      "Ġelection": 7750,
      "Ġstructural": 7751,
      "Ġinitiative": 7752,
      "Ġowner": 7753,
      "Ġvegetation": 7754,
      "Ġsug": 7755,
      "ĠNon": 7756,
      "Ġbutterf": 7757,
      "ĠPet": 7758,
      "Ġcommitted": 7759,
      "icit": 7760,
      "Ġseat": 7761,
      "yal": 7762,
      "Ġdisrupt": 7763,
      "Ġinfants": 7764,
      "Ġcareful": 7765,
      "Use": 7766,
      "ranean": 7767,
      "Ġthermal": 7768,
      "Ġfalling": 7769,
      "Ġaimed": 7770,
      "endar": 7771,
      "Ġtumor": 7772,
      "Are": 7773,
      "uality": 7774,
      "otal": 7775,
      "ansas": 7776,
      "ĠNetwork": 7777,
      "ĠHospital": 7778,
      "agraph": 7779,
      "Ġcommission": 7780,
      "Note": 7781,
      "essions": 7782,
      "Ġdesired": 7783,
      "Ġgrades": 7784,
      "ĠAgriculture": 7785,
      "Ġcash": 7786,
      "ĠMel": 7787,
      "Eng": 7788,
      "oa": 7789,
      "Ġforth": 7790,
      "ĠFund": 7791,
      "Ġmaybe": 7792,
      "ĠWikipedia": 7793,
      "ĠJeff": 7794,
      "Ġwound": 7795,
      "efin": 7796,
      "Ġsensor": 7797,
      "Ã³": 7798,
      "Ġinequ": 7799,
      "ilation": 7800,
      "rape": 7801,
      "ĠHall": 7802,
      "Ġtechnological": 7803,
      "....": 7804,
      "Ġforg": 7805,
      "ĠMen": 7806,
      "ĠBattle": 7807,
      "Ġexception": 7808,
      "Ġpreserve": 7809,
      "Ġgardens": 7810,
      "ptom": 7811,
      "Ġspoken": 7812,
      "oids": 7813,
      "esides": 7814,
      "Ġheads": 7815,
      "Ġquantum": 7816,
      "ĠÎ": 7817,
      "Ġcraft": 7818,
      "otype": 7819,
      "Ġears": 7820,
      "Ġdriven": 7821,
      "Ġweakness": 7822,
      "Ġgravity": 7823,
      "Ġrhyth": 7824,
      "Ġbag": 7825,
      "Ġhealing": 7826,
      "Ġinfant": 7827,
      "Ġlaid": 7828,
      "haust": 7829,
      "ĠFire": 7830,
      "Ġadvert": 7831,
      "Ġsurge": 7832,
      "Ġprotective": 7833,
      "Ġgirl": 7834,
      "Ġcure": 7835,
      "Ġexclus": 7836,
      "Ġcriteria": 7837,
      "iva": 7838,
      "Ġcomfortable": 7839,
      "CA": 7840,
      "Ã¼": 7841,
      "Ġcab": 7842,
      "opyright": 7843,
      "cyclopedia": 7844,
      "77": 7845,
      "plete": 7846,
      "Ġencouraged": 7847,
      "Ġpets": 7848,
      "ĠUr": 7849,
      "Ġinn": 7850,
      "Ġunw": 7851,
      "ĠPolic": 7852,
      "ĠOlymp": 7853,
      "ĠSolar": 7854,
      "Ġcul": 7855,
      "Ġradical": 7856,
      "Ġsuffered": 7857,
      "Ġfascinating": 7858,
      "awn": 7859,
      "PR": 7860,
      "ĠCast": 7861,
      "Ġaudio": 7862,
      "Ġherb": 7863,
      "ĠMassachusetts": 7864,
      "Ġvegetable": 7865,
      "Ġkilometers": 7866,
      "Ġoverwhel": 7867,
      "top": 7868,
      "Ġdrinks": 7869,
      "ĠCurrent": 7870,
      "ivestock": 7871,
      "Ġpsychology": 7872,
      "Ġdynamic": 7873,
      "Ġproportion": 7874,
      "Ġheavily": 7875,
      "Ġplot": 7876,
      "Ġassume": 7877,
      "Ġmixture": 7878,
      "ĠProp": 7879,
      "ĠPennsylvania": 7880,
      "Ġfocusing": 7881,
      "Ġlens": 7882,
      "ĠDutch": 7883,
      "Ġaging": 7884,
      "Ġendangered": 7885,
      "Ġwebsites": 7886,
      "Ġinterpre": 7887,
      "medi": 7888,
      "Ġfatigue": 7889,
      "ĠWithout": 7890,
      "Car": 7891,
      "Ġviewed": 7892,
      "Ġecological": 7893,
      "ersonal": 7894,
      "Ġcham": 7895,
      "Ġachievement": 7896,
      "borne": 7897,
      "ĠSup": 7898,
      "ventions": 7899,
      "Ġthreatened": 7900,
      "Ġtransmit": 7901,
      "Ġmovie": 7902,
      "Ġstreams": 7903,
      "Ġupdated": 7904,
      "Ġassigned": 7905,
      "Ġtumors": 7906,
      "itory": 7907,
      "ĠIdent": 7908,
      "Ġexploring": 7909,
      "Ġsustainability": 7910,
      "ega": 7911,
      "rey": 7912,
      "Ġlakes": 7913,
      "ĠAccess": 7914,
      "ading": 7915,
      "azon": 7916,
      "ugh": 7917,
      "ĠStar": 7918,
      "raining": 7919,
      "Ġequally": 7920,
      "Cons": 7921,
      "Ġsubt": 7922,
      "iti": 7923,
      "Ġwilling": 7924,
      "Ġisolated": 7925,
      "green": 7926,
      "igare": 7927,
      "ema": 7928,
      "Ġvariation": 7929,
      "ĠHarvard": 7930,
      "icular": 7931,
      "Ġwriters": 7932,
      "Ġmammals": 7933,
      "Ġremarkable": 7934,
      "amics": 7935,
      "ĠMult": 7936,
      "Ġspan": 7937,
      "Ġaddiction": 7938,
      "Ġelected": 7939,
      "31": 7940,
      "atial": 7941,
      "Ġmoderate": 7942,
      "imensional": 7943,
      "Ġtables": 7944,
      "Ġconference": 7945,
      "rin": 7946,
      "Ġkeeps": 7947,
      "Ġremoval": 7948,
      "Ġoceans": 7949,
      "Ġsought": 7950,
      "Ġbee": 7951,
      "Ġreform": 7952,
      "HS": 7953,
      "ĠBoston": 7954,
      "irth": 7955,
      "98": 7956,
      "ĠPot": 7957,
      "ortion": 7958,
      "Ġdepart": 7959,
      "Ġtip": 7960,
      "uesday": 7961,
      "Ġlie": 7962,
      "Ġlighting": 7963,
      "foot": 7964,
      "Ġelder": 7965,
      "Ġguess": 7966,
      "ĠSand": 7967,
      "coming": 7968,
      "Ġpositions": 7969,
      "Sim": 7970,
      "gon": 7971,
      "Ġidentification": 7972,
      "Ġemerging": 7973,
      "Ġvel": 7974,
      "operation": 7975,
      "Ġinsurance": 7976,
      "Ġrank": 7977,
      "oga": 7978,
      "Ġalter": 7979,
      "Ġabandon": 7980,
      "iability": 7981,
      "ĠIns": 7982,
      "Ġhygien": 7983,
      "Ġstrengthen": 7984,
      "Ġhunting": 7985,
      "also": 7986,
      "ĠQueen": 7987,
      "Ġextend": 7988,
      "Ġceremon": 7989,
      "enger": 7990,
      "Ġstations": 7991,
      "ĠFrancisc": 7992,
      "Ġbeans": 7993,
      "Ġprovince": 7994,
      "asant": 7995,
      "ĠTO": 7996,
      "65": 7997,
      "rance": 7998,
      "Ġbutton": 7999,
      "Ġindicated": 8000,
      "EF": 8001,
      "Ġcriminal": 8002,
      "requ": 8003,
      "ady": 8004,
      "Ġprogramme": 8005,
      "Also": 8006,
      "ednes": 8007,
      "Ġprey": 8008,
      "Ġphysically": 8009,
      "Ġfulf": 8010,
      "chnology": 8011,
      "Ġcontainer": 8012,
      "brew": 8013,
      "Two": 8014,
      "ano": 8015,
      "akistan": 8016,
      "Ġagents": 8017,
      "Ġautomatically": 8018,
      "DS": 8019,
      "HA": 8020,
      "Ġtob": 8021,
      "Ġlibr": 8022,
      "erb": 8023,
      "Ġarthritis": 8024,
      "brid": 8025,
      "ĠOrig": 8026,
      "Ġdies": 8027,
      "Ġvertical": 8028,
      "rat": 8029,
      "Ġvisited": 8030,
      "47": 8031,
      "Gl": 8032,
      "Ġnoticed": 8033,
      "action": 8034,
      "Ġexperimental": 8035,
      "Ġmature": 8036,
      "Ġseparated": 8037,
      "Tra": 8038,
      "istant": 8039,
      "ecess": 8040,
      "Ġlifetime": 8041,
      "ĠAntar": 8042,
      "otherapy": 8043,
      "Ġdating": 8044,
      "Ġseemed": 8045,
      "Ġfought": 8046,
      "Ġnone": 8047,
      "iological": 8048,
      "izz": 8049,
      "Ġagreed": 8050,
      "Ġchocolate": 8051,
      "Ġgrant": 8052,
      "Ġinvestigate": 8053,
      "Ġnutritional": 8054,
      "Ġacquired": 8055,
      "ĠAuthor": 8056,
      "Ġuniversal": 8057,
      "trans": 8058,
      "Ġstones": 8059,
      "Ġproof": 8060,
      "Ġrecre": 8061,
      "class": 8062,
      "Ġclaimed": 8063,
      "Ġweapons": 8064,
      "Ġintensity": 8065,
      "ommod": 8066,
      "ĠImp": 8067,
      "Ġpuzz": 8068,
      "ĠTop": 8069,
      "eries": 8070,
      "rob": 8071,
      "ĠCorn": 8072,
      "ĠHoly": 8073,
      "ĠRoad": 8074,
      "Ġoutcome": 8075,
      "OM": 8076,
      "ĠBul": 8077,
      "ĠLight": 8078,
      "pling": 8079,
      "Ġphysician": 8080,
      "Ġflexible": 8081,
      "Sm": 8082,
      "rait": 8083,
      "Ġsteam": 8084,
      "rox": 8085,
      "Ġplanted": 8086,
      "Ġwatching": 8087,
      "%)": 8088,
      "ĠJac": 8089,
      "ĠLevel": 8090,
      "ĠFriday": 8091,
      "Ġallergies": 8092,
      "istical": 8093,
      "Ġconfig": 8094,
      "erally": 8095,
      "Ġgast": 8096,
      "bar": 8097,
      "dr": 8098,
      "orig": 8099,
      "Ġtongue": 8100,
      "Ġpione": 8101,
      "quir": 8102,
      "ĠPass": 8103,
      "Ġven": 8104,
      "made": 8105,
      "Ġnice": 8106,
      "Ġinvented": 8107,
      "Ġcotton": 8108,
      "rolled": 8109,
      "Ġshed": 8110,
      "ĠMS": 8111,
      "bridge": 8112,
      "Ġpandemic": 8113,
      "Pr": 8114,
      "iac": 8115,
      "Ġconvert": 8116,
      "arming": 8117,
      "Ġclassic": 8118,
      "Ġenormous": 8119,
      "eness": 8120,
      "icted": 8121,
      "Ġdirections": 8122,
      "ĠAdditionally": 8123,
      "Ġcolonial": 8124,
      "ĠWeek": 8125,
      "Ġgranted": 8126,
      "Ġbleeding": 8127,
      "Ġovercome": 8128,
      "Ġsodium": 8129,
      "Ġdefense": 8130,
      "ruit": 8131,
      "fast": 8132,
      "abeth": 8133,
      "Ġeleph": 8134,
      "Ġtack": 8135,
      "Ġrays": 8136,
      "ĠTim": 8137,
      "thal": 8138,
      "Ġcolonies": 8139,
      "Please": 8140,
      "ami": 8141,
      "Ġchap": 8142,
      "opher": 8143,
      "mented": 8144,
      "Ġobservation": 8145,
      "Ġregardless": 8146,
      "Ġmigration": 8147,
      "list": 8148,
      "roc": 8149,
      "Ġconclusion": 8150,
      "Ġpeoples": 8151,
      "Ġemphasis": 8152,
      "Ġinterior": 8153,
      "Ġdescript": 8154,
      "Ġembry": 8155,
      "Ġsubsequent": 8156,
      "sen": 8157,
      "Ġlists": 8158,
      "ĠAP": 8159,
      "49": 8160,
      "Ġtobacco": 8161,
      "ĠOnline": 8162,
      "Ġphones": 8163,
      "Ġliterary": 8164,
      "Ġsymbols": 8165,
      "Ġadds": 8166,
      "Ġequality": 8167,
      "Ġwww": 8168,
      "Ġtranslation": 8169,
      "Ed": 8170,
      "onomic": 8171,
      "ĠWay": 8172,
      "ĠParty": 8173,
      "kind": 8174,
      "iber": 8175,
      "Ġmanaging": 8176,
      "erving": 8177,
      "Ġregulation": 8178,
      "ednesday": 8179,
      "kl": 8180,
      "Ġalive": 8181,
      "Ġerrors": 8182,
      "semb": 8183,
      "through": 8184,
      "aneously": 8185,
      "Ġinformed": 8186,
      "Ġdigestive": 8187,
      "ĠMot": 8188,
      "anger": 8189,
      "hemistry": 8190,
      "Ġuncertain": 8191,
      "etary": 8192,
      "Ġ1998": 8193,
      "Ġboundaries": 8194,
      "estions": 8195,
      "Ġoutdoor": 8196,
      "Ġwonderful": 8197,
      "BT": 8198,
      "eras": 8199,
      "Ġdistricts": 8200,
      "ĠBlue": 8201,
      "ĠAM": 8202,
      "Ġdifferently": 8203,
      "Ġmyst": 8204,
      "ursday": 8205,
      "Ġsafely": 8206,
      "Ġhttps": 8207,
      "Ġelementary": 8208,
      "Ġbomb": 8209,
      "Ġmodule": 8210,
      "ĠLittle": 8211,
      "apping": 8212,
      "Ġpy": 8213,
      "ĠEp": 8214,
      "Ġpairs": 8215,
      "ĠIce": 8216,
      "Ġinterface": 8217,
      "Ġinvestigation": 8218,
      "Ġhouseholds": 8219,
      "Ġdemands": 8220,
      "Ġritual": 8221,
      "ĠHebrew": 8222,
      "ĠCir": 8223,
      "ĠDigital": 8224,
      "Ġversions": 8225,
      "Ġprohib": 8226,
      "Ġmaintained": 8227,
      "Ġdentist": 8228,
      "ĠSunday": 8229,
      "hus": 8230,
      "uits": 8231,
      "Ġhosp": 8232,
      "ĠJul": 8233,
      "Ġconsiderable": 8234,
      "ogenic": 8235,
      "Ġadverse": 8236,
      "Ġnarrative": 8237,
      "Ġcub": 8238,
      "etal": 8239,
      "Ġsubstantial": 8240,
      "western": 8241,
      "ali": 8242,
      "Ġles": 8243,
      "ĠDou": 8244,
      "Ġspr": 8245,
      "rub": 8246,
      "ergart": 8247,
      "Ġproductivity": 8248,
      "Ġrow": 8249,
      "Ġlowest": 8250,
      "Ġnegot": 8251,
      "inois": 8252,
      "Ġschedule": 8253,
      "Ġash": 8254,
      "Ġconqu": 8255,
      "Ġauthent": 8256,
      "ĠKey": 8257,
      "Ġid": 8258,
      "Ġopposed": 8259,
      "Ġdeficiency": 8260,
      "Ġfisher": 8261,
      "ĠArts": 8262,
      "aterials": 8263,
      "Ġannually": 8264,
      "Ġguard": 8265,
      "po": 8266,
      "Ġreef": 8267,
      "outheast": 8268,
      "Ġslaves": 8269,
      "Just": 8270,
      "Ġperception": 8271,
      "Ġ55": 8272,
      "ĠModel": 8273,
      "ĠPur": 8274,
      "Ġbrains": 8275,
      "iterranean": 8276,
      "Ġstreets": 8277,
      "Ġloose": 8278,
      "Ġliterally": 8279,
      "Ġquantity": 8280,
      "Ġshore": 8281,
      "Ġreward": 8282,
      "Ġvaries": 8283,
      "ĠDev": 8284,
      "Ġperforming": 8285,
      "Ġlinear": 8286,
      "Ġoutbreak": 8287,
      "itarian": 8288,
      "Ġexhaust": 8289,
      "ĠChapter": 8290,
      "Ġvariations": 8291,
      "ĠResearchers": 8292,
      "Ġconcentrations": 8293,
      "Health": 8294,
      "mod": 8295,
      "ĠPDF": 8296,
      "Ġreveals": 8297,
      "Ġsplit": 8298,
      "ĠKorea": 8299,
      "Ġchromos": 8300,
      "Ġwisdom": 8301,
      "ums": 8302,
      "Ġaccidents": 8303,
      "ĠSecret": 8304,
      "Ġcalculate": 8305,
      "Co": 8306,
      "Ġwings": 8307,
      "Ġstatements": 8308,
      "ĠPhot": 8309,
      "forcement": 8310,
      "Ġmanufacturers": 8311,
      "Ġgathered": 8312,
      "ĠHor": 8313,
      "ostic": 8314,
      "Ġproved": 8315,
      "ĠStandards": 8316,
      "85": 8317,
      "Ġbare": 8318,
      "ĠJohnson": 8319,
      "Ġtribes": 8320,
      "sell": 8321,
      "Ġhence": 8322,
      "Ġcreativity": 8323,
      "ĠMonth": 8324,
      "Ġhusband": 8325,
      "ĠSystems": 8326,
      "ustainable": 8327,
      "usive": 8328,
      "Ġintent": 8329,
      "Ġentertain": 8330,
      "Ġcontinent": 8331,
      "wan": 8332,
      "Ġcontribution": 8333,
      "Ġequation": 8334,
      "Ġreaches": 8335,
      "Ġshock": 8336,
      "atively": 8337,
      "agnetic": 8338,
      "Ġcharacteristic": 8339,
      "atal": 8340,
      "Ġswelling": 8341,
      "Ġsad": 8342,
      "Ġresistant": 8343,
      "orted": 8344,
      "ideo": 8345,
      "Ġrelie": 8346,
      "ĠHead": 8347,
      "Ġplain": 8348,
      "ĠRet": 8349,
      "Ġemotion": 8350,
      "Ġassets": 8351,
      "Ġearthquake": 8352,
      "iger": 8353,
      "Ġneither": 8354,
      "cule": 8355,
      "uten": 8356,
      "ĠEst": 8357,
      "Ġresil": 8358,
      "Ġscores": 8359,
      "Ġrepresentation": 8360,
      "Ġtutorial": 8361,
      "ugg": 8362,
      "Ġpartnership": 8363,
      "Ġconverted": 8364,
      "AB": 8365,
      "ĠBack": 8366,
      "Ġshoot": 8367,
      "Ġworkplace": 8368,
      "ĠIslam": 8369,
      "Ġexpanded": 8370,
      "ĠFair": 8371,
      "Ġtens": 8372,
      "Ġrecip": 8373,
      "Ġunderground": 8374,
      "ĠAlaska": 8375,
      "ĠMonday": 8376,
      "aud": 8377,
      "idal": 8378,
      "ĠHand": 8379,
      "Ġspine": 8380,
      "ĠOper": 8381,
      "Ġsaving": 8382,
      "Ġexped": 8383,
      "Sub": 8384,
      "Ġclassical": 8385,
      "Ġnewspaper": 8386,
      "rary": 8387,
      "ritten": 8388,
      "aware": 8389,
      "Ġabsorb": 8390,
      "ĠResp": 8391,
      "Ġfra": 8392,
      "ati": 8393,
      "esh": 8394,
      "Ġcontents": 8395,
      "lectric": 8396,
      "May": 8397,
      "Ġ)": 8398,
      "Ġcalling": 8399,
      "Ġrespectively": 8400,
      "Ġcrown": 8401,
      "ĠCell": 8402,
      "Ġspray": 8403,
      "Ġdemocracy": 8404,
      "Ġcontributed": 8405,
      "Ġinvasive": 8406,
      "Ġsoils": 8407,
      "ĠFact": 8408,
      "Ġsocieties": 8409,
      "Ġuniversities": 8410,
      "Ġpoetry": 8411,
      "Ġvolunteers": 8412,
      "riendly": 8413,
      "Ge": 8414,
      "ptic": 8415,
      "orrect": 8416,
      "quar": 8417,
      "pled": 8418,
      "Ġdefinitions": 8419,
      "Ġsongs": 8420,
      "ĠPakistan": 8421,
      "Ġbalanced": 8422,
      "izabeth": 8423,
      "Ġceleb": 8424,
      "Ġeditor": 8425,
      "Ġminds": 8426,
      "Ġabstract": 8427,
      "ĠColl": 8428,
      "ĠCentury": 8429,
      "Children": 8430,
      "assium": 8431,
      "erman": 8432,
      "Ġchannel": 8433,
      "Ġtight": 8434,
      "real": 8435,
      "ĠSaint": 8436,
      "Ġ1920": 8437,
      "Ġsensitivity": 8438,
      "Ġdegrad": 8439,
      "Ġsacr": 8440,
      "Ġsulf": 8441,
      "Ġhaven": 8442,
      "nea": 8443,
      "egin": 8444,
      "Ġcoron": 8445,
      "agon": 8446,
      "Ġanalyzed": 8447,
      "rem": 8448,
      "ĠpH": 8449,
      "Ġmunicip": 8450,
      "osaur": 8451,
      "Ġburied": 8452,
      "Ġadapted": 8453,
      "].": 8454,
      "Ġclay": 8455,
      "Ġconfident": 8456,
      "Ġlecture": 8457,
      "Ġillegal": 8458,
      "Ġtap": 8459,
      "Ġye": 8460,
      "Ġpersonality": 8461,
      "Ġoste": 8462,
      "ĠTom": 8463,
      "ĠAL": 8464,
      "Ġclock": 8465,
      "Ġdiarr": 8466,
      "Ġlivestock": 8467,
      "Ġparagraph": 8468,
      "ĠMediterranean": 8469,
      "Ġsurprise": 8470,
      "ĠHelp": 8471,
      "NS": 8472,
      "Ġcorrel": 8473,
      "ĠConfed": 8474,
      "rh": 8475,
      "ĠKar": 8476,
      "Ġcoverage": 8477,
      "Source": 8478,
      "ette": 8479,
      "ruption": 8480,
      "Ġdeadly": 8481,
      "Ġadvances": 8482,
      "Ġirrig": 8483,
      "'.": 8484,
      "Like": 8485,
      "Ġstability": 8486,
      "Ġwrites": 8487,
      "Ġbasically": 8488,
      "Ġbullying": 8489,
      "bris": 8490,
      "zone": 8491,
      "Ġmine": 8492,
      "ĠRh": 8493,
      "ĠNote": 8494,
      "Ġdose": 8495,
      "Ġregarded": 8496,
      "Com": 8497,
      "Ġimpair": 8498,
      "Ġpaintings": 8499,
      "Ġneurolog": 8500,
      "ĠSupreme": 8501,
      "cre": 8502,
      "ani": 8503,
      "ĠNov": 8504,
      "Ġvaried": 8505,
      "Ġaddresses": 8506,
      "ĠSTEM": 8507,
      "Ġempty": 8508,
      "Ġ?": 8509,
      "Ġentering": 8510,
      "Ġcopyright": 8511,
      "Aut": 8512,
      "Ġwearing": 8513,
      "issance": 8514,
      "Ġsummary": 8515,
      "Ġcommunications": 8516,
      "ĠMusic": 8517,
      "books": 8518,
      "ĠProcess": 8519,
      "Ġowned": 8520,
      "Ġbehavioral": 8521,
      "rizona": 8522,
      "Ġom": 8523,
      "Ġkilling": 8524,
      "ĠCross": 8525,
      "ĠJo": 8526,
      "Ġsched": 8527,
      "issipp": 8528,
      "inf": 8529,
      "uther": 8530,
      "Ġsciences": 8531,
      "Ġneurons": 8532,
      "zym": 8533,
      "Ġbene": 8534,
      "Ġsettled": 8535,
      "Ġpesticides": 8536,
      "Ġlosing": 8537,
      "Ġcurrency": 8538,
      "Ġhumanity": 8539,
      "ĠSpring": 8540,
      "Ġgrammar": 8541,
      "night": 8542,
      "Ġdiets": 8543,
      "last": 8544,
      "Ġsales": 8545,
      "Ġadm": 8546,
      "Ġresid": 8547,
      "Ġclouds": 8548,
      "Ġraising": 8549,
      "Ġprovider": 8550,
      "Ġproviders": 8551,
      "Ġtemporary": 8552,
      "Ġnuts": 8553,
      "Ġexhibition": 8554,
      "ĠPu": 8555,
      "umer": 8556,
      "rix": 8557,
      "regon": 8558,
      "TP": 8559,
      "Ġdim": 8560,
      "play": 8561,
      "Ġswit": 8562,
      "Ġemerged": 8563,
      "Ġcontributions": 8564,
      "',": 8565,
      "Ġinch": 8566,
      "Ġancestors": 8567,
      "ivities": 8568,
      "Ġeverywhere": 8569,
      "ometric": 8570,
      "Ġfrust": 8571,
      "ĠIllinois": 8572,
      "ĠMicrosoft": 8573,
      "ih": 8574,
      "unar": 8575,
      "ĠIndepend": 8576,
      "Ġensuring": 8577,
      "Ġtaxes": 8578,
      "Ġfriendly": 8579,
      "imensions": 8580,
      "Ġtraits": 8581,
      "ĠGreece": 8582,
      "Ġexpectations": 8583,
      "Ġgums": 8584,
      "Despite": 8585,
      "mble": 8586,
      "eting": 8587,
      "Ġtomat": 8588,
      "Ġcong": 8589,
      "88": 8590,
      "Ġpel": 8591,
      "Ġclothes": 8592,
      "Ġlosses": 8593,
      "Ġelectrons": 8594,
      "Ġsaved": 8595,
      "Ġcontaminated": 8596,
      "bow": 8597,
      "Ġcann": 8598,
      "Ġrac": 8599,
      "rapeut": 8600,
      "EG": 8601,
      "MP": 8602,
      "ĠSar": 8603,
      "mentation": 8604,
      "Ġcoat": 8605,
      "ĠLy": 8606,
      "Ġjudge": 8607,
      "Ġpreparing": 8608,
      "just": 8609,
      "Ġwat": 8610,
      "Ġbears": 8611,
      "iture": 8612,
      "stru": 8613,
      "ĠSir": 8614,
      "emor": 8615,
      "Ġaccommod": 8616,
      "Ġdramatically": 8617,
      "urricane": 8618,
      "Ġsatisf": 8619,
      "Ġmouse": 8620,
      "elfare": 8621,
      "Ġaddressed": 8622,
      "working": 8623,
      "QL": 8624,
      "Â®": 8625,
      "Ġreverse": 8626,
      "ructive": 8627,
      "Ġtherm": 8628,
      "Ġprevalence": 8629,
      "Ġbeneath": 8630,
      "Ġthread": 8631,
      "Ġlob": 8632,
      "TH": 8633,
      "Ġengineer": 8634,
      "ĠOften": 8635,
      "Research": 8636,
      "Ġgraduate": 8637,
      "Ġmetabolism": 8638,
      "ĠFrancisco": 8639,
      "ergarten": 8640,
      "ubble": 8641,
      "Ġzones": 8642,
      "Ġpromoting": 8643,
      "Ġease": 8644,
      "imp": 8645,
      "Ġcanal": 8646,
      "Ġblo": 8647,
      "early": 8648,
      "best": 8649,
      "Ġcort": 8650,
      "Ġparticle": 8651,
      "Ġconvey": 8652,
      "Ġrh": 8653,
      "izers": 8654,
      "holders": 8655,
      "ĠNob": 8656,
      "Ġavailability": 8657,
      "Ġspecialized": 8658,
      "world": 8659,
      "iosity": 8660,
      "42": 8661,
      "ml": 8662,
      "ometer": 8663,
      "Ġbreaks": 8664,
      "ĠCard": 8665,
      "Ġthemes": 8666,
      "Ġstopped": 8667,
      "Ã¶": 8668,
      "Ġcow": 8669,
      "ĠEPA": 8670,
      "Rel": 8671,
      "Ġwider": 8672,
      "Ġpale": 8673,
      "ials": 8674,
      "ĠStan": 8675,
      "Ġmeteor": 8676,
      "79": 8677,
      "Ġverte": 8678,
      "ĠContin": 8679,
      "Ġgif": 8680,
      "urning": 8681,
      "Ġvirtually": 8682,
      "Ġcharged": 8683,
      "Ġforecast": 8684,
      "Ġremoving": 8685,
      "IF": 8686,
      "cled": 8687,
      "Ġreferences": 8688,
      "ĠCenters": 8689,
      "Ġassignment": 8690,
      "Orig": 8691,
      "box": 8692,
      "ouri": 8693,
      "Ġabsence": 8694,
      "PV": 8695,
      "Ġlip": 8696,
      "Ġpeer": 8697,
      "Ġdevelopmental": 8698,
      "Ġpilot": 8699,
      "oline": 8700,
      "Ġdiffer": 8701,
      "Ġampl": 8702,
      "Ġcollections": 8703,
      "Ġol": 8704,
      "Ġrainfall": 8705,
      "ĠIT": 8706,
      "Ġcomprom": 8707,
      "Ġasp": 8708,
      "Ġsevent": 8709,
      "Ġdefend": 8710,
      "Ġslave": 8711,
      "Ġterror": 8712,
      "Ġpace": 8713,
      "elly": 8714,
      "Ġaccompanied": 8715,
      "Ġtab": 8716,
      "Ġargue": 8717,
      "Ġattach": 8718,
      "ĠMoreover": 8719,
      "Ġordinary": 8720,
      "pass": 8721,
      "Ġtor": 8722,
      "Ġdress": 8723,
      "imm": 8724,
      "Ġ1940": 8725,
      "rass": 8726,
      "Ġshorter": 8727,
      "Ġsurg": 8728,
      "Ġreporting": 8729,
      "Ġpasses": 8730,
      "ĠPolicy": 8731,
      "ener": 8732,
      "ĠTry": 8733,
      "Ġactively": 8734,
      "Ġbasics": 8735,
      "Ġcontrolling": 8736,
      "Ġconcluded": 8737,
      "iments": 8738,
      "Ġtrem": 8739,
      "ĠView": 8740,
      "Ġsimult": 8741,
      "Ġlogic": 8742,
      "Ġpink": 8743,
      "unning": 8744,
      "Ġresc": 8745,
      "Ġclient": 8746,
      "Ġexisted": 8747,
      "Ġdefinitely": 8748,
      "Ġsoph": 8749,
      "Ġhal": 8750,
      "Ġcompos": 8751,
      "Ġnerves": 8752,
      "OW": 8753,
      "Water": 8754,
      "Ġtick": 8755,
      "Ġfellow": 8756,
      "ĠBu": 8757,
      "Ġmedieval": 8758,
      "Ġimprovements": 8759,
      "Ġwooden": 8760,
      "elve": 8761,
      "adel": 8762,
      "iversary": 8763,
      "ĠAnalysis": 8764,
      "asma": 8765,
      "ĠWriting": 8766,
      "neum": 8767,
      "Ġrestric": 8768,
      "Ġwinds": 8769,
      "MI": 8770,
      "dep": 8771,
      "unct": 8772,
      "Ġgenome": 8773,
      "Ġcapabilities": 8774,
      "Ġbelieves": 8775,
      "Ġroyal": 8776,
      "ĠIndones": 8777,
      "ao": 8778,
      "erts": 8779,
      "CD": 8780,
      "ĠBang": 8781,
      "Ġtrace": 8782,
      "Ġfifth": 8783,
      "Ne": 8784,
      "Ġcommitment": 8785,
      "ĠArea": 8786,
      "Ġvibr": 8787,
      "ĠAmazon": 8788,
      "Ġneutral": 8789,
      "Ġdetermining": 8790,
      "you": 8791,
      "asy": 8792,
      "ĠNever": 8793,
      "ĠUV": 8794,
      "raham": 8795,
      "endment": 8796,
      "Ġbreaking": 8797,
      "Ġlegend": 8798,
      "Ġpointed": 8799,
      "Ġcontributing": 8800,
      "aren": 8801,
      "Ġoptical": 8802,
      "Ġwireless": 8803,
      "sor": 8804,
      "Ġwal": 8805,
      "Ġbags": 8806,
      "ĠLast": 8807,
      "Ġdisplayed": 8808,
      "issippi": 8809,
      "ĠCreek": 8810,
      "Ġwash": 8811,
      "Ġdeeply": 8812,
      "Ġrobots": 8813,
      "Ġft": 8814,
      "ĠAsk": 8815,
      "ributes": 8816,
      "Ġconcerning": 8817,
      "Ġmedicines": 8818,
      "Ġchicken": 8819,
      "!!": 8820,
      "ĠScientists": 8821,
      "ĠWil": 8822,
      "EA": 8823,
      "Ġassistant": 8824,
      "Ġranges": 8825,
      "Ġprobability": 8826,
      "Ġmeaningful": 8827,
      "CL": 8828,
      "ĠTre": 8829,
      "Ġwithd": 8830,
      "obile": 8831,
      "Ġ1997": 8832,
      "Ġsurprised": 8833,
      "ensed": 8834,
      "Ġ2021": 8835,
      "Ġgenus": 8836,
      "Ġcolony": 8837,
      "dd": 8838,
      "atures": 8839,
      "Ġdirected": 8840,
      "aneous": 8841,
      "healthy": 8842,
      "ologically": 8843,
      "Ġfunded": 8844,
      "?\"": 8845,
      "cia": 8846,
      "Ġmerely": 8847,
      "Ġham": 8848,
      "ishop": 8849,
      "Ġworkshop": 8850,
      "Ġworship": 8851,
      "Up": 8852,
      "cal": 8853,
      "iary": 8854,
      "Ġhall": 8855,
      "Ġcran": 8856,
      "Ġarrest": 8857,
      "Ġbarriers": 8858,
      "Ġaggressive": 8859,
      "jo": 8860,
      "advant": 8861,
      "Ġdebris": 8862,
      "Ġscales": 8863,
      "ocket": 8864,
      "Ġtelling": 8865,
      "Ġtargeted": 8866,
      "Ġfeels": 8867,
      "Ġboat": 8868,
      "Ġviral": 8869,
      "har": 8870,
      "text": 8871,
      "Ġhygiene": 8872,
      "55": 8873,
      "ĠOnt": 8874,
      "Ġtends": 8875,
      "ogy": 8876,
      "ĠVitamin": 8877,
      "Ġtom": 8878,
      "ĠWhether": 8879,
      "Ġunp": 8880,
      "Ġpreced": 8881,
      "Ref": 8882,
      "Ġmanual": 8883,
      "Ġatmospheric": 8884,
      "Ġallergic": 8885,
      "Ġpriority": 8886,
      "Through": 8887,
      "iop": 8888,
      "ĠArizona": 8889,
      "ĠID": 8890,
      "ĠLos": 8891,
      "Ġbeat": 8892,
      "Ġstake": 8893,
      "Ġsubstit": 8894,
      "atus": 8895,
      "ura": 8896,
      "Ġ120": 8897,
      "ĠBuilding": 8898,
      "Ġefficiently": 8899,
      "Ġsusceptible": 8900,
      "icts": 8901,
      "ĠVer": 8902,
      "olk": 8903,
      "ĠTool": 8904,
      "Ġgrams": 8905,
      "Ġspreading": 8906,
      "Ġwars": 8907,
      "olph": 8908,
      "ĠMah": 8909,
      "Ġgalaxy": 8910,
      "Ø§": 8911,
      "chain": 8912,
      "ĠAR": 8913,
      "ĠCD": 8914,
      "ĠDC": 8915,
      "Ġevening": 8916,
      "Ġexcav": 8917,
      "ĠDivision": 8918,
      "Ġul": 8919,
      "Ġknee": 8920,
      "Ġprecip": 8921,
      "oves": 8922,
      "Ġinsights": 8923,
      "Ġsleeping": 8924,
      "Ġviolent": 8925,
      "Ġjuice": 8926,
      "ĠOxford": 8927,
      "archy": 8928,
      "ĠWhich": 8929,
      "Ġswimming": 8930,
      "oons": 8931,
      "reens": 8932,
      "Ġperm": 8933,
      "Ġerosion": 8934,
      "Ġdominant": 8935,
      "ĠMach": 8936,
      "ĠFurthermore": 8937,
      "Ġmembrane": 8938,
      "Ġsessions": 8939,
      "Ġpainted": 8940,
      "berries": 8941,
      "ĠKent": 8942,
      "Ġinterpretation": 8943,
      "Back": 8944,
      "Ġfiction": 8945,
      "Ġjaw": 8946,
      "Ġagent": 8947,
      "Ġrelate": 8948,
      "lishing": 8949,
      "Ġcalendar": 8950,
      "ĠSchools": 8951,
      "John": 8952,
      "CR": 8953,
      "Ġstems": 8954,
      "Then": 8955,
      "ogens": 8956,
      "ĠLu": 8957,
      "Ġsheets": 8958,
      "Ġcrack": 8959,
      "va": 8960,
      "ĠOregon": 8961,
      "ĠBiology": 8962,
      "EO": 8963,
      "Ġrational": 8964,
      "rained": 8965,
      "Ġcirculation": 8966,
      "Ġchoosing": 8967,
      "Ġdocumented": 8968,
      "ĠModern": 8969,
      "ician": 8970,
      "Ġ600": 8971,
      "Ġgrounds": 8972,
      "Ġsew": 8973,
      "Ġauto": 8974,
      "ĠCDC": 8975,
      "ĠProble": 8976,
      "bage": 8977,
      "ĠMid": 8978,
      "ourse": 8979,
      "Ġgray": 8980,
      "Ġsymptom": 8981,
      "ĠPhD": 8982,
      "Ġaccurately": 8983,
      "Ġexecutive": 8984,
      "eem": 8985,
      "Ġalumin": 8986,
      "mental": 8987,
      "Ġvan": 8988,
      "ocity": 8989,
      "Ġpreschool": 8990,
      "Ġmarg": 8991,
      "Ġembed": 8992,
      "Ac": 8993,
      "Ġpermission": 8994,
      "Ġdiscussions": 8995,
      "43": 8996,
      "itle": 8997,
      "urable": 8998,
      "Ġscope": 8999,
      "Ġparks": 9000,
      "ĠDrug": 9001,
      "Ġcelebration": 9002,
      "ilst": 9003,
      "Ġmanager": 9004,
      "Ġbarrier": 9005,
      "oded": 9006,
      "Ġblank": 9007,
      "fulness": 9008,
      "Ġtension": 9009,
      "emb": 9010,
      "Ġapplying": 9011,
      "Ġscat": 9012,
      "Ġmyster": 9013,
      "Ġshr": 9014,
      "ipe": 9015,
      "Ġ37": 9016,
      "Ġbegun": 9017,
      "Ġconsideration": 9018,
      "Ġquantities": 9019,
      "Ġvarying": 9020,
      "ĠPhysical": 9021,
      "SP": 9022,
      "Ġappl": 9023,
      "Ġextension": 9024,
      "pring": 9025,
      "Ġpropag": 9026,
      "Ġathletes": 9027,
      "ĠBusiness": 9028,
      "ĠGar": 9029,
      "aka": 9030,
      "ĠStation": 9031,
      "Ġamino": 9032,
      "Ġlock": 9033,
      "Ġpopularity": 9034,
      "ĠImpro": 9035,
      "Ġcarbohydrates": 9036,
      "Ġsupplements": 9037,
      "akespe": 9038,
      "Ġseriously": 9039,
      "ĠEdward": 9040,
      "Ġcalculated": 9041,
      "CP": 9042,
      "Ġdeer": 9043,
      "Ġpeers": 9044,
      "Ġrecording": 9045,
      "Ġinterventions": 9046,
      "ĠÂ©": 9047,
      "Ġimmigrants": 9048,
      "ocated": 9049,
      "Ġcheap": 9050,
      "Ġenthus": 9051,
      "Ġsurrounded": 9052,
      "ĠPhilipp": 9053,
      "Ġbuff": 9054,
      "Ġcouldn": 9055,
      "urches": 9056,
      "Ġchose": 9057,
      "Ġcellular": 9058,
      "Ġinfluences": 9059,
      "Ġelectronics": 9060,
      "Ġwouldn": 9061,
      "Ġhazards": 9062,
      "%,": 9063,
      "uan": 9064,
      "Ġtone": 9065,
      "ĠFred": 9066,
      "ĠConvention": 9067,
      "Ġpassword": 9068,
      "Ġcameras": 9069,
      "Ġbite": 9070,
      "ĠHindu": 9071,
      "Ġ33": 9072,
      "nesota": 9073,
      "usalem": 9074,
      "bell": 9075,
      "ailed": 9076,
      "hester": 9077,
      "ĠElizabeth": 9078,
      "Ġdiscipline": 9079,
      "05": 9080,
      "ĠSanta": 9081,
      "ĠPain": 9082,
      "Ġchair": 9083,
      "Ġenemy": 9084,
      "Ġpipe": 9085,
      "Ġquiet": 9086,
      "Ġstrange": 9087,
      "Ġradi": 9088,
      "ĠNext": 9089,
      "UL": 9090,
      "Ġarguments": 9091,
      "Ġwaiting": 9092,
      "ĠMississippi": 9093,
      "orus": 9094,
      "Ġpp": 9095,
      "Ġhomework": 9096,
      "Ġaddressing": 9097,
      "66": 9098,
      "MA": 9099,
      "ifer": 9100,
      "Ġputs": 9101,
      "Ġcas": 9102,
      "Ġbeach": 9103,
      "Ġhealthier": 9104,
      "akespeare": 9105,
      "estone": 9106,
      "Ġevil": 9107,
      "Ġparad": 9108,
      "Ġpose": 9109,
      "ĠCode": 9110,
      "Ġoverweight": 9111,
      "Ġeaten": 9112,
      "Ġpurchased": 9113,
      "Ġdiagram": 9114,
      "Ġion": 9115,
      "ifier": 9116,
      "ĠThanks": 9117,
      "ĠAssessment": 9118,
      "urd": 9119,
      "ĠEr": 9120,
      "Ġplates": 9121,
      "ĠVe": 9122,
      "Ġinvention": 9123,
      "Ġdesignated": 9124,
      "ĠMissouri": 9125,
      "Ġparameters": 9126,
      "ugs": 9127,
      "ĠChristianity": 9128,
      "ĠStandard": 9129,
      "lamic": 9130,
      "Ġpill": 9131,
      "olves": 9132,
      "ĠPython": 9133,
      "Ġ1995": 9134,
      "'d": 9135,
      "Ġpreserved": 9136,
      "Ġentit": 9137,
      "Ġalert": 9138,
      "ricks": 9139,
      "Ġ38": 9140,
      "Ġreproductive": 9141,
      "ĠTestament": 9142,
      "Ġfacilitate": 9143,
      "lem": 9144,
      "ĠForce": 9145,
      "press": 9146,
      "ĠÐ": 9147,
      "Ġbull": 9148,
      "Ġbibl": 9149,
      "irms": 9150,
      "Ġdivide": 9151,
      "Ġtu": 9152,
      "ĠSmall": 9153,
      "Ġthyroid": 9154,
      "utation": 9155,
      "Ġalgorithm": 9156,
      "Ġadvis": 9157,
      "regular": 9158,
      "Ġoxid": 9159,
      "ĠFinally": 9160,
      "Ġaccomplish": 9161,
      "thew": 9162,
      "Ġposts": 9163,
      "Ġcombine": 9164,
      "Ġwing": 9165,
      "Ġthereby": 9166,
      "Ġpassion": 9167,
      "Mar": 9168,
      "ysical": 9169,
      "Ġsavings": 9170,
      "ĠPrim": 9171,
      "theless": 9172,
      "Ġpine": 9173,
      "Ġconce": 9174,
      "ĠJava": 9175,
      "ĠTreatment": 9176,
      "Have": 9177,
      "Ġuniform": 9178,
      "ĠConnect": 9179,
      "Ġprofound": 9180,
      "regation": 9181,
      "ighth": 9182,
      "Ġoils": 9183,
[...]
